{
  "version": "1.0",
  "truncation": null,
  "padding": null,
  "added_tokens": [
    {
      "id": 0,
      "content": "<PAD>",
      "single_word": false,
      "lstrip": false,
      "rstrip": false,
      "normalized": false,
      "special": true
    },
    {
      "id": 1,
      "content": "<EOS>",
      "single_word": false,
      "lstrip": false,
      "rstrip": false,
      "normalized": false,
      "special": true
    },
    {
      "id": 2,
      "content": "<UNK>",
      "single_word": false,
      "lstrip": false,
      "rstrip": false,
      "normalized": false,
      "special": true
    }
  ],
  "normalizer": null,
  "pre_tokenizer": {
    "type": "Whitespace"
  },
  "post_processor": null,
  "decoder": {
    "type": "BPEDecoder",
    "suffix": "</w>"
  },
  "model": {
    "type": "BPE",
    "dropout": null,
    "unk_token": null,
    "continuing_subword_prefix": null,
    "end_of_word_suffix": null,
    "fuse_unk": false,
    "byte_fallback": false,
    "ignore_merges": false,
    "vocab": {
      "<PAD>": 0,
      "<EOS>": 1,
      "<UNK>": 2,
      "!": 3,
      "\"": 4,
      "$": 5,
      "%": 6,
      "&": 7,
      "'": 8,
      "(": 9,
      ")": 10,
      "+": 11,
      ",": 12,
      "-": 13,
      ".": 14,
      "/": 15,
      "0": 16,
      "1": 17,
      "2": 18,
      "3": 19,
      "4": 20,
      "5": 21,
      "6": 22,
      "7": 23,
      "8": 24,
      "9": 25,
      ":": 26,
      ";": 27,
      "=": 28,
      "?": 29,
      "@": 30,
      "A": 31,
      "B": 32,
      "C": 33,
      "D": 34,
      "E": 35,
      "F": 36,
      "G": 37,
      "H": 38,
      "I": 39,
      "J": 40,
      "K": 41,
      "L": 42,
      "M": 43,
      "N": 44,
      "O": 45,
      "P": 46,
      "Q": 47,
      "R": 48,
      "S": 49,
      "T": 50,
      "U": 51,
      "V": 52,
      "W": 53,
      "X": 54,
      "Y": 55,
      "Z": 56,
      "[": 57,
      "]": 58,
      "a": 59,
      "b": 60,
      "c": 61,
      "d": 62,
      "e": 63,
      "f": 64,
      "g": 65,
      "h": 66,
      "i": 67,
      "j": 68,
      "k": 69,
      "l": 70,
      "m": 71,
      "n": 72,
      "o": 73,
      "p": 74,
      "q": 75,
      "r": 76,
      "s": 77,
      "t": 78,
      "u": 79,
      "v": 80,
      "w": 81,
      "x": 82,
      "y": 83,
      "z": 84,
      "©": 85,
      "°": 86,
      "É": 87,
      "à": 88,
      "á": 89,
      "ã": 90,
      "ä": 91,
      "æ": 92,
      "è": 93,
      "é": 94,
      "ê": 95,
      "í": 96,
      "ñ": 97,
      "ó": 98,
      "ö": 99,
      "ü": 100,
      "ě": 101,
      "ī": 102,
      "Ō": 103,
      "ō": 104,
      "ū": 105,
      "ǐ": 106,
      "ǜ": 107,
      "ə": 108,
      "έ": 109,
      "δ": 110,
      "ε": 111,
      "ι": 112,
      "λ": 113,
      "μ": 114,
      "ν": 115,
      "ο": 116,
      "π": 117,
      "ς": 118,
      "σ": 119,
      "τ": 120,
      "υ": 121,
      "ό": 122,
      "‑": 123,
      "–": 124,
      "—": 125,
      "’": 126,
      "−": 127,
      "♯": 128,
      "伊": 129,
      "傳": 130,
      "八": 131,
      "勢": 132,
      "史": 133,
      "型": 134,
      "士": 135,
      "大": 136,
      "律": 137,
      "成": 138,
      "戦": 139,
      "春": 140,
      "望": 141,
      "杜": 142,
      "東": 143,
      "甫": 144,
      "甲": 145,
      "聖": 146,
      "艦": 147,
      "處": 148,
      "衛": 149,
      "解": 150,
      "詩": 151,
      "贈": 152,
      "邵": 153,
      "鉄": 154,
      "集": 155,
      "th": 156,
      "the": 157,
      "in": 158,
      "an": 159,
      "er": 160,
      "on": 161,
      "ed": 162,
      "re": 163,
      "at": 164,
      "or": 165,
      "en": 166,
      "st": 167,
      "ar": 168,
      "of": 169,
      "al": 170,
      "and": 171,
      "es": 172,
      "as": 173,
      "to": 174,
      "is": 175,
      "ro": 176,
      "it": 177,
      "ing": 178,
      "ou": 179,
      "ic": 180,
      "ion": 181,
      "le": 182,
      "he": 183,
      "ad": 184,
      "ac": 185,
      "hi": 186,
      "ly": 187,
      "ir": 188,
      "se": 189,
      "ur": 190,
      "il": 191,
      "ent": 192,
      "iv": 193,
      "am": 194,
      "id": 195,
      "te": 196,
      "om": 197,
      "un": 198,
      "be": 199,
      "The": 200,
      "was": 201,
      "-@": 202,
      "@-@": 203,
      "lo": 204,
      "for": 205,
      "po": 206,
      "ch": 207,
      "im": 208,
      "ter": 209,
      "no": 210,
      "gh": 211,
      "ere": 212,
      "de": 213,
      "ge": 214,
      "ce": 215,
      "cl": 216,
      "ct": 217,
      "av": 218,
      "us": 219,
      "by": 220,
      "li": 221,
      "con": 222,
      "that": 223,
      "ver": 224,
      "ap": 225,
      "were": 226,
      "tr": 227,
      "sp": 228,
      "wh": 229,
      "ith": 230,
      "su": 231,
      "ong": 232,
      "mo": 233,
      "with": 234,
      "ll": 235,
      "att": 236,
      "ri": 237,
      "et": 238,
      "hip": 239,
      "rom": 240,
      "bu": 241,
      "com": 242,
      "00": 243,
      "In": 244,
      "ol": 245,
      "ay": 246,
      "all": 247,
      "from": 248,
      "pro": 249,
      "pl": 250,
      "we": 251,
      "em": 252,
      "ber": 253,
      "ation": 254,
      "ab": 255,
      "ne": 256,
      "per": 257,
      "his": 258,
      "ain": 259,
      "res": 260,
      "ship": 261,
      "ate": 262,
      "ght": 263,
      "ther": 264,
      "had": 265,
      "tem": 266,
      "ak": 267,
      "ore": 268,
      "ted": 269,
      "dy": 270,
      "ive": 271,
      "19": 272,
      "ers": 273,
      "ack": 274,
      "oun": 275,
      "ld": 276,
      "are": 277,
      "ul": 278,
      "if": 279,
      "ag": 280,
      "ast": 281,
      "any": 282,
      "ans": 283,
      "spon": 284,
      "iron": 285,
      "so": 286,
      "od": 287,
      "orth": 288,
      "fe": 289,
      "ich": 290,
      "spondy": 291,
      "sa": 292,
      "qu": 293,
      "18": 294,
      "ts": 295,
      "op": 296,
      "ard": 297,
      "ex": 298,
      "str": 299,
      "ill": 300,
      "our": 301,
      "ision": 302,
      "clad": 303,
      "si": 304,
      "um": 305,
      "rou": 306,
      "which": 307,
      "ear": 308,
      "ra": 309,
      "arm": 310,
      "its": 311,
      "der": 312,
      "ls": 313,
      "ve": 314,
      "ish": 315,
      "their": 316,
      "bo": 317,
      "ide": 318,
      "gun": 319,
      "ire": 320,
      "art": 321,
      "ition": 322,
      "ine": 323,
      "end": 324,
      "nospondy": 325,
      "pos": 326,
      "Kore": 327,
      "wo": 328,
      "rit": 329,
      "ity": 330,
      "North": 331,
      "ies": 332,
      "ess": 333,
      "ironclad": 334,
      "ment": 335,
      "ave": 336,
      "ke": 337,
      "ach": 338,
      "wn": 339,
      "ships": 340,
      "one": 341,
      "ous": 342,
      "but": 343,
      "ivision": 344,
      "gn": 345,
      ".@": 346,
      "@.@": 347,
      "low": 348,
      "ated": 349,
      "ant": 350,
      "pe": 351,
      "ass": 352,
      "ction": 353,
      "try": 354,
      "ran": 355,
      "temnospondy": 356,
      "ho": 357,
      "ical": 358,
      "fir": 359,
      "have": 360,
      "over": 361,
      "ut": 362,
      "ould": 363,
      "ort": 364,
      "not": 365,
      "des": 366,
      "also": 367,
      ",@": 368,
      "20": 369,
      "@,@": 370,
      "age": 371,
      "cent": 372,
      "ft": 373,
      "fer": 374,
      "out": 375,
      "ime": 376,
      "Ch": 377,
      "ame": 378,
      "act": 379,
      "ial": 380,
      "mer": 381,
      "ding": 382,
      "ight": 383,
      "ens": 384,
      "US": 385,
      "ev": 386,
      "Com": 387,
      "ep": 388,
      "ater": 389,
      "ome": 390,
      "uring": 391,
      "comp": 392,
      "temnospondyls": 393,
      "they": 394,
      "batt": 395,
      "tro": 396,
      "ines": 397,
      "ind": 398,
      "ck": 399,
      "ph": 400,
      "ican": 401,
      "avy": 402,
      "ound": 403,
      "He": 404,
      "tur": 405,
      "this": 406,
      "stor": 407,
      "ste": 408,
      "wor": 409,
      "first": 410,
      "les": 411,
      "use": 412,
      "200": 413,
      "fan": 414,
      "guns": 415,
      "el": 416,
      "Division": 417,
      "do": 418,
      "fantry": 419,
      "Batt": 420,
      "est": 421,
      "ia": 422,
      "ew": 423,
      "pre": 424,
      "two": 425,
      "ure": 426,
      "ull": 427,
      "form": 428,
      "ary": 429,
      "most": 430,
      "plac": 431,
      "fter": 432,
      "ist": 433,
      "nd": 434,
      "other": 435,
      "amp": 436,
      "saur": 437,
      "roup": 438,
      "lar": 439,
      "armor": 440,
      "position": 441,
      "group": 442,
      "ian": 443,
      "ust": 444,
      "ved": 445,
      "ren": 446,
      "iver": 447,
      "sh": 448,
      "more": 449,
      "able": 450,
      "ped": 451,
      "iss": 452,
      "attack": 453,
      "Comp": 454,
      "air": 455,
      "red": 456,
      "fl": 457,
      "ss": 458,
      "ree": 459,
      "used": 460,
      "Korean": 461,
      "ok": 462,
      "ot": 463,
      "ates": 464,
      "atter": 465,
      "Company": 466,
      "du": 467,
      "Infantry": 468,
      "0s": 469,
      "2nd": 470,
      "Th": 471,
      "fire": 472,
      "part": 473,
      "ward": 474,
      "only": 475,
      "ironclads": 476,
      "ca": 477,
      "been": 478,
      "Du": 479,
      "km": 480,
      "me": 481,
      "pres": 482,
      "ang": 483,
      "ced": 484,
      "ty": 485,
      "war": 486,
      "hile": 487,
      "buil": 488,
      "stru": 489,
      "Amer": 490,
      "during": 491,
      "into": 492,
      "War": 493,
      "ble": 494,
      "pt": 495,
      "sc": 496,
      "ser": 497,
      "them": 498,
      "ally": 499,
      "bet": 500,
      "co": 501,
      "land": 502,
      "clu": 503,
      "like": 504,
      "Fu": 505,
      "ily": 506,
      "long": 507,
      "thou": 508,
      "int": 509,
      "ance": 510,
      "off": 511,
      "spe": 512,
      "Brit": 513,
      "Re": 514,
      "ob": 515,
      "ron": 516,
      "up": 517,
      "ade": 518,
      "It": 519,
      "dis": 520,
      "some": 521,
      "eng": 522,
      "ence": 523,
      "road": 524,
      "und": 525,
      "comm": 526,
      "Un": 527,
      "ese": 528,
      "ign": 529,
      "kno": 530,
      "la": 531,
      "ma": 532,
      "inclu": 533,
      "cted": 534,
      "velo": 535,
      "ious": 536,
      "who": 537,
      "iz": 538,
      "pp": 539,
      "cor": 540,
      "inter": 541,
      "11": 542,
      "On": 543,
      "Sep": 544,
      "ians": 545,
      "many": 546,
      "time": 547,
      "ited": 548,
      "hib": 549,
      "tember": 550,
      "September": 551,
      "cre": 552,
      "gan": 553,
      "iment": 554,
      "umber": 555,
      "met": 556,
      "mall": 557,
      "reg": 558,
      "alion": 559,
      "Koreans": 560,
      "work": 561,
      "St": 562,
      "ae": 563,
      "after": 564,
      "car": 565,
      "ef": 566,
      "ler": 567,
      "iles": 568,
      "ations": 569,
      "large": 570,
      "cap": 571,
      "pr": 572,
      "ru": 573,
      "develo": 574,
      "supp": 575,
      "Ro": 576,
      "bur": 577,
      "came": 578,
      "ied": 579,
      "small": 580,
      "than": 581,
      "ons": 582,
      "ite": 583,
      "poem": 584,
      "201": 585,
      "aw": 586,
      "could": 587,
      "gre": 588,
      "ip": 589,
      "ors": 590,
      "ased": 591,
      "high": 592,
      "cont": 593,
      "play": 594,
      "design": 595,
      "battles": 596,
      "American": 597,
      "Nak": 598,
      "ig": 599,
      "io": 600,
      "line": 601,
      "main": 602,
      "number": 603,
      "ram": 604,
      "sid": 605,
      "tong": 606,
      "would": 607,
      "ick": 608,
      "British": 609,
      "Jap": 610,
      "ces": 611,
      "pical": 612,
      "sk": 613,
      "ank": 614,
      "class": 615,
      "rough": 616,
      "amphib": 617,
      "Japan": 618,
      "man": 619,
      "year": 620,
      "these": 621,
      "ret": 622,
      "ids": 623,
      "aval": 624,
      "cond": 625,
      "Naktong": 626,
      "cy": 627,
      "call": 628,
      "fo": 629,
      "led": 630,
      "ross": 631,
      "ween": 632,
      "194": 633,
      "ific": 634,
      "wood": 635,
      "cc": 636,
      "fle": 637,
      "ning": 638,
      "par": 639,
      "ry": 640,
      "river": 641,
      "pow": 642,
      "storm": 643,
      "built": 644,
      "between": 645,
      "Hit": 646,
      "sou": 647,
      "when": 648,
      "ongs": 649,
      "old": 650,
      "Ar": 651,
      "day": 652,
      "ful": 653,
      "has": 654,
      "ten": 655,
      "through": 656,
      "ase": 657,
      "amily": 658,
      "down": 659,
      "fore": 660,
      "ie": 661,
      "lit": 662,
      "sion": 663,
      "als": 664,
      "ice": 665,
      "log": 666,
      "poet": 667,
      "both": 668,
      "range": 669,
      "Battalion": 670,
      "Hitler": 671,
      "Navy": 672,
      "mm": 673,
      "while": 674,
      "round": 675,
      "add": 676,
      "such": 677,
      "ake": 678,
      "called": 679,
      "This": 680,
      "back": 681,
      "each": 682,
      "there": 683,
      "inu": 684,
      "atic": 685,
      "life": 686,
      "peri": 687,
      "early": 688,
      "though": 689,
      "No": 690,
      "br": 691,
      "men": 692,
      "she": 693,
      "ered": 694,
      "under": 695,
      "light": 696,
      "bert": 697,
      "battleship": 698,
      "Rif": 699,
      "bon": 700,
      "dam": 701,
      "made": 702,
      "ug": 703,
      "again": 704,
      "ments": 705,
      "placed": 706,
      "New": 707,
      "Ste": 708,
      "ni": 709,
      "way": 710,
      "star": 711,
      "urr": 712,
      "ived": 713,
      "app": 714,
      "bum": 715,
      "west": 716,
      "odon": 717,
      "raft": 718,
      "burg": 719,
      "Rifen": 720,
      "division": 721,
      "miles": 722,
      "osaur": 723,
      "por": 724,
      "ict": 725,
      "second": 726,
      "They": 727,
      "def": 728,
      "tropical": 729,
      "Japanese": 730,
      "band": 731,
      "sur": 732,
      "ures": 733,
      "three": 734,
      "load": 735,
      "ctive": 736,
      "near": 737,
      "sist": 738,
      "desc": 739,
      "Battle": 740,
      "carri": 741,
      "Rifenburg": 742,
      "25": 743,
      "9th": 744,
      "ds": 745,
      "later": 746,
      "ark": 747,
      "arch": 748,
      "adv": 749,
      "him": 750,
      "000": 751,
      "skull": 752,
      "Ho": 753,
      "ail": 754,
      "hull": 755,
      "less": 756,
      "mon": 757,
      "north": 758,
      "naval": 759,
      "sing": 760,
      "vi": 761,
      "ery": 762,
      "ating": 763,
      "ener": 764,
      "album": 765,
      "head": 766,
      "usic": 767,
      "veral": 768,
      "moder": 769,
      "ollow": 770,
      "produ": 771,
      "187": 772,
      "icane": 773,
      "steam": 774,
      "ongsan": 775,
      "urricane": 776,
      "Yongsan": 777,
      "ele": 778,
      "her": 779,
      "stri": 780,
      "along": 781,
      "new": 782,
      "armored": 783,
      "amphibians": 784,
      "modern": 785,
      "1st": 786,
      "30": 787,
      "apo": 788,
      "chi": 789,
      "cross": 790,
      "fron": 791,
      "gu": 792,
      "side": 793,
      "sho": 794,
      "incre": 795,
      "read": 796,
      "ics": 797,
      "sel": 798,
      "dest": 799,
      "ops": 800,
      "armour": 801,
      "cycl": 802,
      "fleet": 803,
      "az": 804,
      "clo": 805,
      "cover": 806,
      "dire": 807,
      "four": 808,
      "je": 809,
      "mu": 810,
      "ned": 811,
      "tle": 812,
      "water": 813,
      "ern": 814,
      "very": 815,
      "where": 816,
      "rib": 817,
      "feat": 818,
      "sign": 819,
      "imeter": 820,
      "front": 821,
      "At": 822,
      "craft": 823,
      "rin": 824,
      "ven": 825,
      "rel": 826,
      "arly": 827,
      "ions": 828,
      "tech": 829,
      "became": 830,
      "dec": 831,
      "consid": 832,
      "trans": 833,
      "wever": 834,
      "about": 835,
      "battle": 836,
      "attern": 837,
      "cause": 838,
      "known": 839,
      "metres": 840,
      "develop": 841,
      "continu": 842,
      "power": 843,
      "10": 844,
      "23": 845,
      "Per": 846,
      "can": 847,
      "fin": 848,
      "follow": 849,
      "hurricane": 850,
      "ms": 851,
      "pattern": 852,
      "sy": 853,
      "sed": 854,
      "til": 855,
      "uro": 856,
      "vision": 857,
      "writ": 858,
      "requ": 859,
      "order": 860,
      "heavy": 861,
      "achi": 862,
      "force": 863,
      "moved": 864,
      "rig": 865,
      "exp": 866,
      "aircraft": 867,
      "intens": 868,
      "12": 869,
      "13": 870,
      "24": 871,
      "Al": 872,
      "As": 873,
      "En": 874,
      "dif": 875,
      "ey": 876,
      "lish": 877,
      "sim": 878,
      "ual": 879,
      "rem": 880,
      "rele": 881,
      "ense": 882,
      "roy": 883,
      "now": 884,
      "years": 885,
      "14": 886,
      "16": 887,
      "75": 888,
      "Aug": 889,
      "NK": 890,
      "ci": 891,
      "cal": 892,
      "crit": 893,
      "found": 894,
      "mph": 895,
      "music": 896,
      "ness": 897,
      "rd": 898,
      "iner": 899,
      "iving": 900,
      "before": 901,
      "prote": 902,
      "well": 903,
      "ably": 904,
      "ensive": 905,
      "even": 906,
      "command": 907,
      "against": 908,
      "August": 909,
      "..": 910,
      "15": 911,
      "After": 912,
      "Hill": 913,
      "MS": 914,
      "ger": 915,
      "hy": 916,
      "night": 917,
      "port": 918,
      "rad": 919,
      "ud": 920,
      "around": 921,
      "several": 922,
      "ided": 923,
      "track": 924,
      "ember": 925,
      "ained": 926,
      "Reg": 927,
      "United": 928,
      "including": 929,
      "poems": 930,
      "wooden": 931,
      "battleships": 932,
      "destroy": 933,
      "Ad": 934,
      "Con": 935,
      "For": 936,
      "Os": 937,
      "One": 938,
      "Tem": 939,
      "bar": 940,
      "ga": 941,
      "go": 942,
      "hour": 943,
      "igh": 944,
      "nam": 945,
      "rap": 946,
      "son": 947,
      "stand": 948,
      "ury": 949,
      "cho": 950,
      "char": 951,
      "verte": 952,
      "within": 953,
      "186": 954,
      "comple": 955,
      "inds": 956,
      "struction": 957,
      "Regiment": 958,
      "Car": 959,
      "Fren": 960,
      "Me": 961,
      "bat": 962,
      "bra": 963,
      "jor": 964,
      "pet": 965,
      "ton": 966,
      "tor": 967,
      "wide": 968,
      "infl": 969,
      "because": 970,
      "ters": 971,
      "dep": 972,
      "sub": 973,
      "ult": 974,
      "quatic": 975,
      "188": 976,
      "ached": 977,
      "centr": 978,
      "positions": 979,
      "Osbert": 980,
      "Temnospondy": 981,
      "French": 982,
      "Ise": 983,
      "Mic": 984,
      "bre": 985,
      "coun": 986,
      "med": 987,
      "mor": 988,
      "oth": 989,
      "ospondy": 990,
      "ting": 991,
      "ves": 992,
      "yal": 993,
      "tom": 994,
      "top": 995,
      "hill": 996,
      "until": 997,
      "byrin": 998,
      "ement": 999,
      "perform": 1000,
      "ages": 1001,
      "troops": 1002,
      "prev": 1003,
      "Steiner": 1004,
      "single": 1005,
      "close": 1006,
      "byrinth": 1007,
      "31": 1008,
      "An": 1009,
      "De": 1010,
      "During": 1011,
      "HMS": 1012,
      "Jo": 1013,
      "River": 1014,
      "ded": 1015,
      "east": 1016,
      "gin": 1017,
      "ner": 1018,
      "ost": 1019,
      "ined": 1020,
      "histor": 1021,
      "deck": 1022,
      "trapo": 1023,
      "book": 1024,
      "Chines": 1025,
      "estim": 1026,
      "view": 1027,
      "considered": 1028,
      "intensity": 1029,
      "vertebra": 1030,
      "byrinthodon": 1031,
      "Chinese": 1032,
      "au": 1033,
      "cru": 1034,
      "ek": 1035,
      "flo": 1036,
      "family": 1037,
      "lim": 1038,
      "pass": 1039,
      "xim": 1040,
      "then": 1041,
      "ince": 1042,
      "ative": 1043,
      "oul": 1044,
      "ace": 1045,
      "set": 1046,
      "ivil": 1047,
      "unch": 1048,
      "succ": 1049,
      "thern": 1050,
      "area": 1051,
      "strong": 1052,
      "idea": 1053,
      "place": 1054,
      "regiment": 1055,
      "south": 1056,
      "period": 1057,
      "describ": 1058,
      "AA": 1059,
      "All": 1060,
      "ai": 1061,
      "cle": 1062,
      "ff": 1063,
      "moun": 1064,
      "ub": 1065,
      "ys": 1066,
      "rece": 1067,
      "refer": 1068,
      "ork": 1069,
      "stem": 1070,
      "allow": 1071,
      "seas": 1072,
      "idae": 1073,
      "ctor": 1074,
      "few": 1075,
      "que": 1076,
      "ext": 1077,
      "ended": 1078,
      "steel": 1079,
      "pedo": 1080,
      "warships": 1081,
      "thought": 1082,
      "self": 1083,
      "development": 1084,
      "cruis": 1085,
      "success": 1086,
      "40": 1087,
      "Wh": 1088,
      "You": 1089,
      "cur": 1090,
      "dist": 1091,
      "fight": 1092,
      "late": 1093,
      "lines": 1094,
      "pul": 1095,
      "yong": 1096,
      "inv": 1097,
      "ory": 1098,
      "sty": 1099,
      "rote": 1100,
      "sem": 1101,
      "ility": 1102,
      "idge": 1103,
      "tele": 1104,
      "began": 1105,
      "post": 1106,
      "gest": 1107,
      "plan": 1108,
      "never": 1109,
      "sail": 1110,
      "turret": 1111,
      "struct": 1112,
      "series": 1113,
      "ized": 1114,
      "addition": 1115,
      "shell": 1116,
      "appear": 1117,
      "cyclone": 1118,
      "released": 1119,
      "torpedo": 1120,
      "50": 1121,
      "Boul": 1122,
      "Dv": 1123,
      "Lie": 1124,
      "Se": 1125,
      "While": 1126,
      "batter": 1127,
      "col": 1128,
      "cess": 1129,
      "dra": 1130,
      "ei": 1131,
      "fit": 1132,
      "ier": 1133,
      "lack": 1134,
      "occ": 1135,
      "tain": 1136,
      "ually": 1137,
      "wrote": 1138,
      "xt": 1139,
      "erpet": 1140,
      "ature": 1141,
      "stren": 1142,
      "outh": 1143,
      "held": 1144,
      "being": 1145,
      "using": 1146,
      "proble": 1147,
      "198": 1148,
      "illed": 1149,
      "century": 1150,
      "Chan": 1151,
      "ially": 1152,
      "These": 1153,
      "offic": 1154,
      "Royal": 1155,
      "damage": 1156,
      "Eng": 1157,
      "Boulter": 1158,
      "erpeton": 1159,
      "streng": 1160,
      "17": 1161,
      "100": 1162,
      "Co": 1163,
      "Family": 1164,
      "II": 1165,
      "La": 1166,
      "UN": 1167,
      "York": 1168,
      "ath": 1169,
      "broad": 1170,
      "gener": 1171,
      "min": 1172,
      "nor": 1173,
      "vide": 1174,
      "thick": 1175,
      "rets": 1176,
      "restri": 1177,
      "attem": 1178,
      "ale": 1179,
      "adap": 1180,
      "higan": 1181,
      "appro": 1182,
      "ational": 1183,
      "ress": 1184,
      "ified": 1185,
      "six": 1186,
      "gnyong": 1187,
      "action": 1188,
      "spec": 1189,
      "major": 1190,
      "effe": 1191,
      "developed": 1192,
      "liter": 1193,
      "bones": 1194,
      "features": 1195,
      "Michigan": 1196,
      "vertebrae": 1197,
      "Changnyong": 1198,
      "Iron": 1199,
      "ball": 1200,
      "cing": 1201,
      "did": 1202,
      "gs": 1203,
      "ground": 1204,
      "mp": 1205,
      "may": 1206,
      "sen": 1207,
      "song": 1208,
      "tons": 1209,
      "tank": 1210,
      "winds": 1211,
      "ato": 1212,
      "orig": 1213,
      "ared": 1214,
      "aring": 1215,
      "ament": 1216,
      "tetrapo": 1217,
      "unk": 1218,
      "forces": 1219,
      "chan": 1220,
      "weap": 1221,
      "perimeter": 1222,
      "peak": 1223,
      "company": 1224,
      "world": 1225,
      "There": 1226,
      "partic": 1227,
      "launch": 1228,
      "cording": 1229,
      "Arm": 1230,
      "nique": 1231,
      "continued": 1232,
      "23rd": 1233,
      "explo": 1234,
      "differ": 1235,
      "influ": 1236,
      "described": 1237,
      "restrial": 1238,
      "origin": 1239,
      "28": 1240,
      "38": 1241,
      "ah": 1242,
      "bro": 1243,
      "cas": 1244,
      "cast": 1245,
      "etry": 1246,
      "fall": 1247,
      "gram": 1248,
      "ile": 1249,
      "jo": 1250,
      "killed": 1251,
      "mid": 1252,
      "same": 1253,
      "onto": 1254,
      "reat": 1255,
      "remain": 1256,
      "stud": 1257,
      "ised": 1258,
      "ital": 1259,
      "ings": 1260,
      "ilar": 1261,
      "mov": 1262,
      "lled": 1263,
      "rist": 1264,
      "199": 1265,
      "aged": 1266,
      "board": 1267,
      "posed": 1268,
      "attacked": 1269,
      "present": 1270,
      "serv": 1271,
      "commun": 1272,
      "States": 1273,
      "show": 1274,
      "covered": 1275,
      "technique": 1276,
      "ordered": 1277,
      "regimental": 1278,
      "video": 1279,
      "26": 1280,
      "Eli": 1281,
      "Fran": 1282,
      "Ger": 1283,
      "Hy": 1284,
      "Kiss": 1285,
      "Rus": 1286,
      "Sh": 1287,
      "af": 1288,
      "ax": 1289,
      "bas": 1290,
      "bably": 1291,
      "cour": 1292,
      "ech": 1293,
      "lt": 1294,
      "mar": 1295,
      "mast": 1296,
      "pat": 1297,
      "tal": 1298,
      "erous": 1299,
      "retur": 1300,
      "orak": 1301,
      "orop": 1302,
      "still": 1303,
      "arr": 1304,
      "too": 1305,
      "role": 1306,
      "left": 1307,
      "amm": 1308,
      "begin": 1309,
      "forward": 1310,
      "poetry": 1311,
      "terrestrial": 1312,
      "construction": 1313,
      "what": 1314,
      "olved": 1315,
      "probably": 1316,
      "exce": 1317,
      "earli": 1318,
      "ution": 1319,
      "turrets": 1320,
      "forms": 1321,
      "short": 1322,
      "building": 1323,
      "Ital": 1324,
      "laid": 1325,
      "support": 1326,
      "carriers": 1327,
      "eye": 1328,
      "named": 1329,
      "charac": 1330,
      "central": 1331,
      "television": 1332,
      "Dvorak": 1333,
      "adapted": 1334,
      "Ag": 1335,
      "By": 1336,
      "Early": 1337,
      "PE": 1338,
      "Tur": 1339,
      "Wor": 1340,
      "blo": 1341,
      "cer": 1342,
      "ges": 1343,
      "hn": 1344,
      "hal": 1345,
      "mag": 1346,
      "mill": 1347,
      "ose": 1348,
      "opo": 1349,
      "own": 1350,
      "rum": 1351,
      "rach": 1352,
      "ūga": 1353,
      "repor": 1354,
      "ats": 1355,
      "ened": 1356,
      "asing": 1357,
      "town": 1358,
      "took": 1359,
      "ism": 1360,
      "row": 1361,
      "lead": 1362,
      "ired": 1363,
      "sector": 1364,
      "ident": 1365,
      "ung": 1366,
      "units": 1367,
      "poin": 1368,
      "lies": 1369,
      "conver": 1370,
      "weak": 1371,
      "ability": 1372,
      "ately": 1373,
      "193": 1374,
      "saw": 1375,
      "185": 1376,
      "siz": 1377,
      "temnospondyl": 1378,
      "however": 1379,
      "ortar": 1380,
      "saurus": 1381,
      "issorop": 1382,
      "reech": 1383,
      "speed": 1384,
      "maxim": 1385,
      "included": 1386,
      "advant": 1387,
      "system": 1388,
      "achitom": 1389,
      "destroyed": 1390,
      "Conf": 1391,
      "John": 1392,
      "style": 1393,
      "strength": 1394,
      "tetrapods": 1395,
      "Hyūga": 1396,
      "maximum": 1397,
      "Bu": 1398,
      "Civil": 1399,
      "Hed": 1400,
      "IJ": 1401,
      "Is": 1402,
      "Li": 1403,
      "Pl": 1404,
      "Pro": 1405,
      "We": 1406,
      "bor": 1407,
      "breech": 1408,
      "ggest": 1409,
      "ming": 1410,
      "mir": 1411,
      "oper": 1412,
      "ue": 1413,
      "vo": 1414,
      "var": 1415,
      "inch": 1416,
      "another": 1417,
      "resu": 1418,
      "reached": 1419,
      "ene": 1420,
      "often": 1421,
      "almost": 1422,
      "although": 1423,
      "ough": 1424,
      "hel": 1425,
      "omes": 1426,
      "imes": 1427,
      "aving": 1428,
      "usan": 1429,
      "suf": 1430,
      "super": 1431,
      "suggest": 1432,
      "llite": 1433,
      "come": 1434,
      "olution": 1435,
      "ateg": 1436,
      "atellite": 1437,
      "fered": 1438,
      "otball": 1439,
      "Union": 1440,
      "prim": 1441,
      "played": 1442,
      "started": 1443,
      "surv": 1444,
      "monit": 1445,
      "much": 1446,
      "similar": 1447,
      "estimated": 1448,
      "cruisers": 1449,
      "change": 1450,
      "World": 1451,
      "half": 1452,
      "magaz": 1453,
      "IJN": 1454,
      "27": 1455,
      "Fir": 1456,
      "Le": 1457,
      "May": 1458,
      "Pusan": 1459,
      "Su": 1460,
      "Ty": 1461,
      "Wil": 1462,
      "aquatic": 1463,
      "cus": 1464,
      "fr": 1465,
      "ged": 1466,
      "hachitom": 1467,
      "just": 1468,
      "last": 1469,
      "living": 1470,
      "mber": 1471,
      "na": 1472,
      "name": 1473,
      "navy": 1474,
      "pur": 1475,
      "pair": 1476,
      "rate": 1477,
      "sal": 1478,
      "thir": 1479,
      "anim": 1480,
      "ond": 1481,
      "recor": 1482,
      "alk": 1483,
      "alo": 1484,
      "ities": 1485,
      "ought": 1486,
      "urther": 1487,
      "ils": 1488,
      "tern": 1489,
      "cember": 1490,
      "ush": 1491,
      "ape": 1492,
      "trial": 1493,
      "emy": 1494,
      "abo": 1495,
      "next": 1496,
      "reser": 1497,
      "aking": 1498,
      "sauro": 1499,
      "quick": 1500,
      "illery": 1501,
      "ranchi": 1502,
      "meant": 1503,
      "warship": 1504,
      "knots": 1505,
      "works": 1506,
      "smaller": 1507,
      "sides": 1508,
      "ification": 1509,
      "logist": 1510,
      "However": 1511,
      "produced": 1512,
      "1870s": 1513,
      "direct": 1514,
      "following": 1515,
      "Temnospondyli": 1516,
      "December": 1517,
      "Lieber": 1518,
      "problems": 1519,
      "Labyrinthodon": 1520,
      "weapons": 1521,
      "Eliot": 1522,
      "France": 1523,
      "Russi": 1524,
      "character": 1525,
      "29": 1526,
      "500": 1527,
      "Be": 1528,
      "Bul": 1529,
      "Bill": 1530,
      "Gid": 1531,
      "Har": 1532,
      "Lit": 1533,
      "Mast": 1534,
      "To": 1535,
      "bom": 1536,
      "che": 1537,
      "city": 1538,
      "eth": 1539,
      "equ": 1540,
      "every": 1541,
      "hand": 1542,
      "hit": 1543,
      "hard": 1544,
      "ible": 1545,
      "mach": 1546,
      "mian": 1547,
      "mortar": 1548,
      "slow": 1549,
      "uel": 1550,
      "vis": 1551,
      "vember": 1552,
      "will": 1553,
      "those": 1554,
      "atre": 1555,
      "enemy": 1556,
      "stere": 1557,
      "arters": 1558,
      "ash": 1559,
      "total": 1560,
      "seen": 1561,
      "section": 1562,
      "search": 1563,
      "ivers": 1564,
      "teeth": 1565,
      "contro": 1566,
      "sure": 1567,
      "rior": 1568,
      "prov": 1569,
      "soci": 1570,
      "quarters": 1571,
      "sible": 1572,
      "artillery": 1573,
      "ending": 1574,
      "centra": 1575,
      "formed": 1576,
      "larger": 1577,
      "groups": 1578,
      "redu": 1579,
      "Warrior": 1580,
      "offensive": 1581,
      "speech": 1582,
      "2013": 1583,
      "ificant": 1584,
      "fully": 1585,
      "November": 1586,
      "hulls": 1587,
      "crossing": 1588,
      "significant": 1589,
      "Permian": 1590,
      "...": 1591,
      "1880s": 1592,
      "morning": 1593,
      "previous": 1594,
      "history": 1595,
      "ffalo": 1596,
      "season": 1597,
      "When": 1598,
      "either": 1599,
      "ontologist": 1600,
      "reported": 1601,
      "Buffalo": 1602,
      "Bulge": 1603,
      "stereospondy": 1604,
      "Col": 1605,
      "Coun": 1606,
      "Dire": 1607,
      "Fle": 1608,
      "Ju": 1609,
      "Jew": 1610,
      "Most": 1611,
      "Po": 1612,
      "She": 1613,
      "South": 1614,
      "fro": 1615,
      "five": 1616,
      "ito": 1617,
      "iet": 1618,
      "lor": 1619,
      "mark": 1620,
      "nt": 1621,
      "oce": 1622,
      "ple": 1623,
      "pene": 1624,
      "shi": 1625,
      "sive": 1626,
      "ties": 1627,
      "you": 1628,
      "zz": 1629,
      "inst": 1630,
      "ane": 1631,
      "replaced": 1632,
      "ences": 1633,
      "sted": 1634,
      "state": 1635,
      "ask": 1636,
      "issu": 1637,
      "itar": 1638,
      "ley": 1639,
      "least": 1640,
      "adop": 1641,
      "ently": 1642,
      "ivid": 1643,
      "lost": 1644,
      "former": 1645,
      "get": 1646,
      "liam": 1647,
      "conne": 1648,
      "combat": 1649,
      "week": 1650,
      "ular": 1651,
      "189": 1652,
      "ople": 1653,
      "rought": 1654,
      "armament": 1655,
      "key": 1656,
      "how": 1657,
      "individ": 1658,
      "struck": 1659,
      "Americ": 1660,
      "intended": 1661,
      "Britain": 1662,
      "engage": 1663,
      "supplies": 1664,
      "2012": 1665,
      "designed": 1666,
      "football": 1667,
      "southern": 1668,
      "added": 1669,
      "starred": 1670,
      "loading": 1671,
      "increasing": 1672,
      "ject": 1673,
      "decided": 1674,
      "Perimeter": 1675,
      "radio": 1676,
      "Force": 1677,
      "chool": 1678,
      "counter": 1679,
      "clear": 1680,
      "received": 1681,
      "shells": 1682,
      "atoon": 1683,
      "different": 1684,
      "issoropho": 1685,
      "monitors": 1686,
      "First": 1687,
      "William": 1688,
      "Little": 1689,
      "Mastodon": 1690,
      "County": 1691,
      "penetr": 1692,
      "Ano": 1693,
      "Ery": 1694,
      "Gener": 1695,
      "Her": 1696,
      "Mar": 1697,
      "Other": 1698,
      "Port": 1699,
      "Sp": 1700,
      "Sch": 1701,
      "Some": 1702,
      "Tr": 1703,
      "bs": 1704,
      "base": 1705,
      "cut": 1706,
      "dro": 1707,
      "dom": 1708,
      "fil": 1709,
      "further": 1710,
      "gen": 1711,
      "mi": 1712,
      "miss": 1713,
      "make": 1714,
      "ow": 1715,
      "olog": 1716,
      "run": 1717,
      "sold": 1718,
      "tw": 1719,
      "vation": 1720,
      "yang": 1721,
      "thing": 1722,
      "ina": 1723,
      "ink": 1724,
      "infantry": 1725,
      "ering": 1726,
      "ones": 1727,
      "rew": 1728,
      "rear": 1729,
      "enced": 1730,
      "ise": 1731,
      "heav": 1732,
      "across": 1733,
      "sels": 1734,
      "ives": 1735,
      "beli": 1736,
      "term": 1737,
      "clou": 1738,
      "comment": 1739,
      "prope": 1740,
      "ablish": 1741,
      "19th": 1742,
      "iferous": 1743,
      "ards": 1744,
      "ished": 1745,
      "phal": 1746,
      "2006": 1747,
      "establish": 1748,
      "others": 1749,
      "ssils": 1750,
      "party": 1751,
      "type": 1752,
      "ption": 1753,
      "lands": 1754,
      "crew": 1755,
      "days": 1756,
      "little": 1757,
      "poets": 1758,
      "boniferous": 1759,
      "iction": 1760,
      "sisters": 1761,
      "carried": 1762,
      "directed": 1763,
      "muzz": 1764,
      "critic": 1765,
      "protection": 1766,
      "rapid": 1767,
      "complete": 1768,
      "Carboniferous": 1769,
      "medi": 1770,
      "structure": 1771,
      "fitted": 1772,
      "broadside": 1773,
      "peaked": 1774,
      "patro": 1775,
      "Italian": 1776,
      "Agok": 1777,
      "block": 1778,
      "million": 1779,
      "miral": 1780,
      "Type": 1781,
      "animals": 1782,
      "above": 1783,
      "reserve": 1784,
      "Direction": 1785,
      "Another": 1786,
      "General": 1787,
      "muzzle": 1788,
      "21": 1789,
      "37": 1790,
      "70": 1791,
      "80": 1792,
      "Ben": 1793,
      "Beach": 1794,
      "Both": 1795,
      "Cap": 1796,
      "Em": 1797,
      "His": 1798,
      "Ke": 1799,
      "Naval": 1800,
      "SS": 1801,
      "With": 1802,
      "cro": 1803,
      "care": 1804,
      "died": 1805,
      "eight": 1806,
      "fic": 1807,
      "fail": 1808,
      "frig": 1809,
      "lay": 1810,
      "latter": 1811,
      "leng": 1812,
      "put": 1813,
      "satellite": 1814,
      "uation": 1815,
      "wen": 1816,
      "wit": 1817,
      "intro": 1818,
      "reas": 1819,
      "reli": 1820,
      "reco": 1821,
      "removed": 1822,
      "atch": 1823,
      "orts": 1824,
      "itive": 1825,
      "let": 1826,
      "ured": 1827,
      "ides": 1828,
      "fort": 1829,
      "chang": 1830,
      "import": 1831,
      "noted": 1832,
      "degre": 1833,
      "death": 1834,
      "contr": 1835,
      "riend": 1836,
      "bul": 1837,
      "comb": 1838,
      "plic": 1839,
      "plates": 1840,
      "weight": 1841,
      "need": 1842,
      "said": 1843,
      "184": 1844,
      "rather": 1845,
      "body": 1846,
      "ically": 1847,
      "firing": 1848,
      "ferry": 1849,
      "USS": 1850,
      "event": 1851,
      "indic": 1852,
      "2004": 1853,
      "iaquatic": 1854,
      "prepar": 1855,
      "ustri": 1856,
      "attacks": 1857,
      "coast": 1858,
      "engine": 1859,
      "engines": 1860,
      "skulls": 1861,
      "production": 1862,
      "guitar": 1863,
      "increased": 1864,
      "ready": 1865,
      "armoured": 1866,
      "cyclones": 1867,
      "jective": 1868,
      "writing": 1869,
      "required": 1870,
      "Admiral": 1871,
      "break": 1872,
      "vessels": 1873,
      "performed": 1874,
      "prevent": 1875,
      "successful": 1876,
      "semiaquatic": 1877,
      "appeared": 1878,
      "battery": 1879,
      "attemp": 1880,
      "aleontologist": 1881,
      "literary": 1882,
      "Army": 1883,
      "earlier": 1884,
      "various": 1885,
      "ranchiosaur": 1886,
      "Labyrinthodont": 1887,
      "Gidding": 1888,
      "machine": 1889,
      "Fleet": 1890,
      "cloud": 1891,
      "introdu": 1892,
      "degrees": 1893,
      "300": 1894,
      "60": 1895,
      "Austri": 1896,
      "Black": 1897,
      "Cl": 1898,
      "Cent": 1899,
      "CSS": 1900,
      "Even": 1901,
      "From": 1902,
      "Flor": 1903,
      "Ge": 1904,
      "Gu": 1905,
      "Man": 1906,
      "Mon": 1907,
      "West": 1908,
      "bone": 1909,
      "cir": 1910,
      "da": 1911,
      "dark": 1912,
      "drum": 1913,
      "fact": 1914,
      "friend": 1915,
      "gill": 1916,
      "gave": 1917,
      "gress": 1918,
      "lic": 1919,
      "mit": 1920,
      "member": 1921,
      "making": 1922,
      "nes": 1923,
      "nav": 1924,
      "ps": 1925,
      "pho": 1926,
      "ric": 1927,
      "rain": 1928,
      "ridge": 1929,
      "sent": 1930,
      "ught": 1931,
      "youn": 1932,
      "theast": 1933,
      "init": 1934,
      "anal": 1935,
      "ants": 1936,
      "ances": 1937,
      "eder": 1938,
      "rept": 1939,
      "ator": 1940,
      "orted": 1941,
      "enough": 1942,
      "ales": 1943,
      "assa": 1944,
      "topo": 1945,
      "toward": 1946,
      "iser": 1947,
      "ison": 1948,
      "itor": 1949,
      "hearing": 1950,
      "ention": 1951,
      "iven": 1952,
      "amand": 1953,
      "ida": 1954,
      "team": 1955,
      "une": 1956,
      "below": 1957,
      "version": 1958,
      "sports": 1959,
      "emb": 1960,
      "aining": 1961,
      "arent": 1962,
      "strateg": 1963,
      "possible": 1964,
      "lower": 1965,
      "assic": 1966,
      "209": 1967,
      "battalion": 1968,
      "phy": 1969,
      "ounded": 1970,
      "2007": 1971,
      "rent": 1972,
      "caused": 1973,
      "pressure": 1974,
      "longer": 1975,
      "poetic": 1976,
      "himself": 1977,
      "northwest": 1978,
      "shot": 1979,
      "relative": 1980,
      "powerful": 1981,
      "Although": 1982,
      "remat": 1983,
      "commander": 1984,
      "barbet": 1985,
      "hours": 1986,
      "depend": 1987,
      "draw": 1988,
      "English": 1989,
      "effective": 1990,
      "Ironclad": 1991,
      "launched": 1992,
      "explosive": 1993,
      "original": 1994,
      "38th": 1995,
      "movement": 1996,
      "Confeder": 1997,
      "third": 1998,
      "record": 1999,
      "stereospondyls": 2000,
      "frogs": 2001,
      "Mastodonsaurus": 2002,
      "important": 2003,
      "Florida": 2004,
      "22": 2005,
      "Bo": 2006,
      "Brig": 2007,
      "Bai": 2008,
      "Euro": 2009,
      "Four": 2010,
      "Gomes": 2011,
      "NY": 2012,
      "National": 2013,
      "Oc": 2014,
      "Pe": 2015,
      "Pal": 2016,
      "Pac": 2017,
      "San": 2018,
      "Sim": 2019,
      "Ster": 2020,
      "Since": 2021,
      "Walk": 2022,
      "case": 2023,
      "dense": 2024,
      "dissoropho": 2025,
      "eospondy": 2026,
      "fam": 2027,
      "grap": 2028,
      "hou": 2029,
      "hum": 2030,
      "hang": 2031,
      "kes": 2032,
      "mis": 2033,
      "mass": 2034,
      "minu": 2035,
      "nar": 2036,
      "pite": 2037,
      "paleontologist": 2038,
      "rhachitom": 2039,
      "smo": 2040,
      "school": 2041,
      "tes": 2042,
      "tact": 2043,
      "tip": 2044,
      "uch": 2045,
      "val": 2046,
      "wounded": 2047,
      "yd": 2048,
      "yards": 2049,
      "thor": 2050,
      "ann": 2051,
      "once": 2052,
      "review": 2053,
      "atrach": 2054,
      "start": 2055,
      "ars": 2056,
      "alive": 2057,
      "escap": 2058,
      "tober": 2059,
      "roof": 2060,
      "rock": 2061,
      "ads": 2062,
      "among": 2063,
      "unition": 2064,
      "unable": 2065,
      "best": 2066,
      "local": 2067,
      "imag": 2068,
      "conv": 2069,
      "oles": 2070,
      "resh": 2071,
      "akes": 2072,
      "ults": 2073,
      "ularly": 2074,
      "soon": 2075,
      "experi": 2076,
      "raised": 2077,
      "boats": 2078,
      "endr": 2079,
      "Korea": 2080,
      "people": 2081,
      "center": 2082,
      "eved": 2083,
      "epis": 2084,
      "2000": 2085,
      "2008": 2086,
      "shape": 2087,
      "That": 2088,
      "served": 2089,
      "labyrinthodon": 2090,
      "ize": 2091,
      "ization": 2092,
      "pract": 2093,
      "supported": 2094,
      "away": 2095,
      "great": 2096,
      "higher": 2097,
      "numbers": 2098,
      "fossils": 2099,
      "flex": 2100,
      "News": 2101,
      "25th": 2102,
      "heads": 2103,
      "headquarters": 2104,
      "crossed": 2105,
      "signed": 2106,
      "followed": 2107,
      "written": 2108,
      "request": 2109,
      "going": 2110,
      "Temnospondyls": 2111,
      "hills": 2112,
      "mounts": 2113,
      "fighting": 2114,
      "batteries": 2115,
      "colle": 2116,
      "official": 2117,
      "joined": 2118,
      "studio": 2119,
      "1994": 2120,
      "service": 2121,
      "opoids": 2122,
      "size": 2123,
      "suffered": 2124,
      "magazine": 2125,
      "ternal": 2126,
      "quickly": 2127,
      "Jewish": 2128,
      "Portage": 2129,
      "length": 2130,
      "recogn": 2131,
      "gills": 2132,
      "rematosaur": 2133,
      "Europe": 2134,
      "October": 2135,
      "Pacific": 2136,
      "Stereospondy": 2137,
      "Walker": 2138,
      "minute": 2139,
      "43": 2140,
      "65": 2141,
      "Ac": 2142,
      "Bro": 2143,
      "Back": 2144,
      "But": 2145,
      "Branchiosaur": 2146,
      "CD": 2147,
      "Fo": 2148,
      "Fus": 2149,
      "Glo": 2150,
      "High": 2151,
      "Jan": 2152,
      "Late": 2153,
      "Later": 2154,
      "Lake": 2155,
      "Lond": 2156,
      "Mir": 2157,
      "Owen": 2158,
      "Par": 2159,
      "Tri": 2160,
      "Task": 2161,
      "based": 2162,
      "cm": 2163,
      "cop": 2164,
      "den": 2165,
      "dou": 2166,
      "ever": 2167,
      "fted": 2168,
      "find": 2169,
      "free": 2170,
      "flight": 2171,
      "gy": 2172,
      "grow": 2173,
      "given": 2174,
      "hor": 2175,
      "having": 2176,
      "iers": 2177,
      "ka": 2178,
      "ken": 2179,
      "mater": 2180,
      "nought": 2181,
      "ogram": 2182,
      "pes": 2183,
      "prom": 2184,
      "pub": 2185,
      "ring": 2186,
      "squ": 2187,
      "site": 2188,
      "tion": 2189,
      "take": 2190,
      "times": 2191,
      "uan": 2192,
      "uary": 2193,
      "vere": 2194,
      "yet": 2195,
      "ony": 2196,
      "oned": 2197,
      "ream": 2198,
      "respon": 2199,
      "represent": 2200,
      "organ": 2201,
      "ening": 2202,
      "already": 2203,
      "outs": 2204,
      "sea": 2205,
      "sequ": 2206,
      "entire": 2207,
      "ival": 2208,
      "ames": 2209,
      "teen": 2210,
      "unding": 2211,
      "loca": 2212,
      "poor": 2213,
      "image": 2214,
      "consist": 2215,
      "move": 2216,
      "aband": 2217,
      "perial": 2218,
      "perfamily": 2219,
      "atest": 2220,
      "ulner": 2221,
      "stral": 2222,
      "ishop": 2223,
      "bot": 2224,
      "overall": 2225,
      "ferred": 2226,
      "stead": 2227,
      "saurs": 2228,
      "flank": 2229,
      "wards": 2230,
      "serious": 2231,
      "better": 2232,
      "cost": 2233,
      "coll": 2234,
      "likely": 2235,
      "obal": 2236,
      "include": 2237,
      "capt": 2238,
      "grew": 2239,
      "greatest": 2240,
      "designs": 2241,
      "ramming": 2242,
      "1944": 2243,
      "bridge": 2244,
      "damaged": 2245,
      "Holoca": 2246,
      "month": 2247,
      "elevation": 2248,
      "readnought": 2249,
      "fourth": 2250,
      "transl": 2251,
      "final": 2252,
      "24th": 2253,
      "ualties": 2254,
      "critics": 2255,
      "protected": 2256,
      "standard": 2257,
      "1860s": 2258,
      "completed": 2259,
      "performance": 2260,
      "31B": 2261,
      "limited": 2262,
      "referred": 2263,
      "involved": 2264,
      "additional": 2265,
      "attempt": 2266,
      "effect": 2267,
      "communic": 2268,
      "court": 2269,
      "returned": 2270,
      "pointed": 2271,
      "converted": 2272,
      "advantages": 2273,
      "result": 2274,
      "Superfamily": 2275,
      "salamand": 2276,
      "Russian": 2277,
      "Billboard": 2278,
      "iversity": 2279,
      "issue": 2280,
      "patrol": 2281,
      "Keiser": 2282,
      "career": 2283,
      "circ": 2284,
      "navies": 2285,
      "imagery": 2286,
      "endrerpeton": 2287,
      "Fusō": 2288,
      "Gloire": 2289,
      "January": 2290,
      "London": 2291,
      "Miryang": 2292,
      "Triassic": 2293,
      "Holocaust": 2294,
      "45": 2295,
      "76": 2296,
      "Ale": 2297,
      "Bur": 2298,
      "Crist": 2299,
      "Dendrerpeton": 2300,
      "EN": 2301,
      "Edo": 2302,
      "IN": 2303,
      "June": 2304,
      "King": 2305,
      "My": 2306,
      "Mur": 2307,
      "Mark": 2308,
      "TV": 2309,
      "Te": 2310,
      "Tro": 2311,
      "Two": 2312,
      "Trematosaur": 2313,
      "Wat": 2314,
      "ather": 2315,
      "aft": 2316,
      "bl": 2317,
      "bour": 2318,
      "brought": 2319,
      "bishop": 2320,
      "cial": 2321,
      "civil": 2322,
      "dac": 2323,
      "ec": 2324,
      "eg": 2325,
      "far": 2326,
      "fav": 2327,
      "frequ": 2328,
      "face": 2329,
      "fresh": 2330,
      "gl": 2331,
      "gr": 2332,
      "give": 2333,
      "hous": 2334,
      "home": 2335,
      "hind": 2336,
      "liss": 2337,
      "mand": 2338,
      "pal": 2339,
      "pred": 2340,
      "punk": 2341,
      "sit": 2342,
      "sess": 2343,
      "since": 2344,
      "tar": 2345,
      "tit": 2346,
      "uc": 2347,
      "uage": 2348,
      "vir": 2349,
      "went": 2350,
      "threat": 2351,
      "inc": 2352,
      "anced": 2353,
      "era": 2354,
      "ref": 2355,
      "rest": 2356,
      "aters": 2357,
      "ord": 2358,
      "stap": 2359,
      "asion": 2360,
      "iting": 2361,
      "icted": 2362,
      "acu": 2363,
      "acy": 2364,
      "accom": 2365,
      "separ": 2366,
      "seven": 2367,
      "severe": 2368,
      "ural": 2369,
      "amid": 2370,
      "tel": 2371,
      "Theatre": 2372,
      "loc": 2373,
      "loy": 2374,
      "loss": 2375,
      "look": 2376,
      "forced": 2377,
      "popul": 2378,
      "chu": 2379,
      "chart": 2380,
      "imens": 2381,
      "noon": 2382,
      "ghost": 2383,
      "del": 2384,
      "avail": 2385,
      "list": 2386,
      "conna": 2387,
      "superi": 2388,
      "withdraw": 2389,
      "ets": 2390,
      "project": 2391,
      "temper": 2392,
      "tempor": 2393,
      "agio": 2394,
      "ope": 2395,
      "external": 2396,
      "ument": 2397,
      "boil": 2398,
      "utes": 2399,
      "centre": 2400,
      "actor": 2401,
      "ampa": 2402,
      "sauria": 2403,
      "should": 2404,
      "issance": 2405,
      "otic": 2406,
      "due": 2407,
      "caught": 2408,
      "anguage": 2409,
      "scales": 2410,
      "Recor": 2411,
      "objective": 2412,
      "know": 2413,
      "region": 2414,
      "working": 2415,
      "afternoon": 2416,
      "capital": 2417,
      "supply": 2418,
      "2015": 2419,
      "iple": 2420,
      "1942": 2421,
      "1948": 2422,
      "ield": 2423,
      "logen": 2424,
      "increase": 2425,
      "finally": 2426,
      "cali": 2427,
      "eastward": 2428,
      "flood": 2429,
      "floating": 2430,
      "passed": 2431,
      "current": 2432,
      "planes": 2433,
      "specimens": 2434,
      "particularly": 2435,
      "influenced": 2436,
      "casualties": 2437,
      "community": 2438,
      "course": 2439,
      "marines": 2440,
      "ammunition": 2441,
      "beginning": 2442,
      "except": 2443,
      "points": 2444,
      "advantage": 2445,
      "systems": 2446,
      "Island": 2447,
      "Platoon": 2448,
      "primitive": 2449,
      "Leon": 2450,
      "sauroidea": 2451,
      "bomb": 2452,
      "equip": 2453,
      "July": 2454,
      "ocean": 2455,
      "1890s": 2456,
      "Marine": 2457,
      "Schmit": 2458,
      "soldiers": 2459,
      "propell": 2460,
      "rapidly": 2461,
      "Center": 2462,
      "Manchu": 2463,
      "smooth": 2464,
      "labyrinthodonts": 2465,
      "requested": 2466,
      "Stereospondyli": 2467,
      "According": 2468,
      "CDO": 2469,
      "material": 2470,
      "salamanders": 2471,
      "Murdac": 2472,
      "stapes": 2473,
      "connaissance": 2474,
      "superior": 2475,
      "Records": 2476,
      "Schmitt": 2477,
      "35": 2478,
      "46": 2479,
      "600": 2480,
      "72nd": 2481,
      "90": 2482,
      "Am": 2483,
      "CC": 2484,
      "CR": 2485,
      "Hu": 2486,
      "Hay": 2487,
      "Im": 2488,
      "Ma": 2489,
      "Mer": 2490,
      "Many": 2491,
      "Ne": 2492,
      "Of": 2493,
      "Pr": 2494,
      "Ser": 2495,
      "Sing": 2496,
      "T4": 2497,
      "Tour": 2498,
      "Tank": 2499,
      "Winds": 2500,
      "aim": 2501,
      "bri": 2502,
      "cat": 2503,
      "cold": 2504,
      "draft": 2505,
      "fish": 2506,
      "full": 2507,
      "fig": 2508,
      "field": 2509,
      "ging": 2510,
      "hold": 2511,
      "ior": 2512,
      "jaw": 2513,
      "jung": 2514,
      "ling": 2515,
      "language": 2516,
      "my": 2517,
      "mouth": 2518,
      "oil": 2519,
      "ode": 2520,
      "oste": 2521,
      "ris": 2522,
      "rup": 2523,
      "sch": 2524,
      "sus": 2525,
      "say": 2526,
      "tak": 2527,
      "uart": 2528,
      "uals": 2529,
      "ving": 2530,
      "vulner": 2531,
      "whe": 2532,
      "waters": 2533,
      "theless": 2534,
      "inno": 2535,
      "infr": 2536,
      "ante": 2537,
      "anies": 2538,
      "rein": 2539,
      "repe": 2540,
      "recent": 2541,
      "repul": 2542,
      "atus": 2543,
      "attr": 2544,
      "atives": 2545,
      "stu": 2546,
      "stop": 2547,
      "stage": 2548,
      "stern": 2549,
      "alongs": 2550,
      "assigned": 2551,
      "touch": 2552,
      "ingu": 2553,
      "ioned": 2554,
      "leaving": 2555,
      "ades": 2556,
      "adition": 2557,
      "according": 2558,
      "sec": 2559,
      "sele": 2560,
      "teor": 2561,
      "omer": 2562,
      "unarmored": 2563,
      "behind": 2564,
      "pospondy": 2565,
      "point": 2566,
      "imet": 2567,
      "immedi": 2568,
      "deep": 2569,
      "destruction": 2570,
      "gether": 2571,
      "cephal": 2572,
      "cler": 2573,
      "confl": 2574,
      "tradition": 2575,
      "spent": 2576,
      "without": 2577,
      "attached": 2578,
      "coming": 2579,
      "proved": 2580,
      "process": 2581,
      "nel": 2582,
      "necess": 2583,
      "peror": 2584,
      "person": 2585,
      "190": 2586,
      "197": 2587,
      "areas": 2588,
      "aging": 2589,
      "open": 2590,
      "arded": 2591,
      "examp": 2592,
      "clade": 2593,
      "umn": 2594,
      "route": 2595,
      "achy": 2596,
      "ctions": 2597,
      "Chang": 2598,
      "China": 2599,
      "compet": 2600,
      "tured": 2601,
      "turned": 2602,
      "word": 2603,
      "2003": 2604,
      "placing": 2605,
      "placement": 2606,
      "preser": 2607,
      "presence": 2608,
      "pression": 2609,
      "tymp": 2610,
      "University": 2611,
      "115": 2612,
      "Only": 2613,
      "Stuart": 2614,
      "Robert": 2615,
      "2014": 2616,
      "greater": 2617,
      "highly": 2618,
      "highway": 2619,
      "maintain": 2620,
      "skin": 2621,
      "amphibian": 2622,
      "paral": 2623,
      "powder": 2624,
      "rounds": 2625,
      "brachy": 2626,
      "apparent": 2627,
      "defence": 2628,
      "defense": 2629,
      "loaded": 2630,
      "sister": 2631,
      "elements": 2632,
      "related": 2633,
      "eyes": 2634,
      "evening": 2635,
      "gocephal": 2636,
      "standing": 2637,
      "Meteor": 2638,
      "moral": 2639,
      "limbs": 2640,
      "mounted": 2641,
      "allowed": 2642,
      "pulsion": 2643,
      "structures": 2644,
      "Several": 2645,
      "officers": 2646,
      "tanks": 2647,
      "worldwide": 2648,
      "explosion": 2649,
      "broken": 2650,
      "casem": 2651,
      "studies": 2652,
      "masts": 2653,
      "return": 2654,
      "Turret": 2655,
      "1930s": 2656,
      "Like": 2657,
      "suggests": 2658,
      "survived": 2659,
      "sauroids": 2660,
      "characterist": 2661,
      "control": 2662,
      "reduced": 2663,
      "aneous": 2664,
      "individuals": 2665,
      "America": 2666,
      "twin": 2667,
      "heavily": 2668,
      "Capito": 2669,
      "frigates": 2670,
      "attempted": 2671,
      "Geor": 2672,
      "Monitor": 2673,
      "members": 2674,
      "analys": 2675,
      "phylogen": 2676,
      "dependent": 2677,
      "Brigade": 2678,
      "human": 2679,
      "narchi": 2680,
      "rhachitomous": 2681,
      "episode": 2682,
      "flexible": 2683,
      "recognized": 2684,
      "double": 2685,
      "abandoned": 2686,
      "collap": 2687,
      "Cristobal": 2688,
      "Watson": 2689,
      "eggs": 2690,
      "houses": 2691,
      "situation": 2692,
      "virt": 2693,
      "available": 2694,
      "temporary": 2695,
      "brief": 2696,
      "catap": 2697,
      "jungle": 2698,
      "taken": 2699,
      "repulsed": 2700,
      "alongside": 2701,
      "example": 2702,
      "tympan": 2703,
      "3rd": 2704,
      "4th": 2705,
      "69": 2706,
      "81": 2707,
      "Apr": 2708,
      "Bl": 2709,
      "Bay": 2710,
      "Bah": 2711,
      "Chi": 2712,
      "Des": 2713,
      "Dreadnought": 2714,
      "Ev": 2715,
      "Ex": 2716,
      "Ele": 2717,
      "Eight": 2718,
      "Eigh": 2719,
      "Fe": 2720,
      "Gan": 2721,
      "Hg": 2722,
      "Home": 2723,
      "Hot": 2724,
      "Ko": 2725,
      "Lim": 2726,
      "Music": 2727,
      "MTV": 2728,
      "Ob": 2729,
      "Or": 2730,
      "Pug": 2731,
      "Rep": 2732,
      "Sy": 2733,
      "TH": 2734,
      "Tae": 2735,
      "Take": 2736,
      "Tampa": 2737,
      "Vir": 2738,
      "Wol": 2739,
      "aut": 2740,
      "bi": 2741,
      "bed": 2742,
      "bines": 2743,
      "dle": 2744,
      "fac": 2745,
      "fast": 2746,
      "fuel": 2747,
      "game": 2748,
      "gence": 2749,
      "hic": 2750,
      "homes": 2751,
      "ju": 2752,
      "ku": 2753,
      "kil": 2754,
      "lb": 2755,
      "os": 2756,
      "phi": 2757,
      "pri": 2758,
      "past": 2759,
      "pie": 2760,
      "praised": 2761,
      "rid": 2762,
      "ses": 2763,
      "som": 2764,
      "sound": 2765,
      "sink": 2766,
      "tax": 2767,
      "uther": 2768,
      "wed": 2769,
      "wind": 2770,
      "zed": 2771,
      "thod": 2772,
      "theatre": 2773,
      "inent": 2774,
      "inosaur": 2775,
      "inHg": 2776,
      "rev": 2777,
      "respe": 2778,
      "ators": 2779,
      "env": 2780,
      "enant": 2781,
      "station": 2782,
      "stained": 2783,
      "stream": 2784,
      "offer": 2785,
      "offered": 2786,
      "together": 2787,
      "room": 2788,
      "itself": 2789,
      "adly": 2790,
      "acted": 2791,
      "lyr": 2792,
      "seem": 2793,
      "ential": 2794,
      "ivity": 2795,
      "ivors": 2796,
      "amas": 2797,
      "become": 2798,
      "Their": 2799,
      "polit": 2800,
      "chin": 2801,
      "imp": 2802,
      "dead": 2803,
      "claim": 2804,
      "uses": 2805,
      "lifted": 2806,
      "conc": 2807,
      "appre": 2808,
      "appointed": 2809,
      "triple": 2810,
      "spread": 2811,
      "why": 2812,
      "sustained": 2813,
      "lling": 2814,
      "ried": 2815,
      "right": 2816,
      "Ind": 2817,
      "Inflexible": 2818,
      "olf": 2819,
      "ayed": 2820,
      "program": 2821,
      "progress": 2822,
      "plat": 2823,
      "ples": 2824,
      "weigh": 2825,
      "agin": 2826,
      "feed": 2827,
      "felt": 2828,
      "exam": 2829,
      "exist": 2830,
      "expres": 2831,
      "armed": 2832,
      "vehic": 2833,
      "artic": 2834,
      "ineer": 2835,
      "possess": 2836,
      "antic": 2837,
      "util": 2838,
      "utenant": 2839,
      "20th": 2840,
      "actions": 2841,
      "evolved": 2842,
      "Command": 2843,
      "compound": 2844,
      "indu": 2845,
      "cked": 2846,
      "stein": 2847,
      "preced": 2848,
      "ampion": 2849,
      "metopo": 2850,
      "types": 2851,
      "warf": 2852,
      "ptions": 2853,
      "coal": 2854,
      "discus": 2855,
      "unders": 2856,
      "Unlike": 2857,
      "intern": 2858,
      "intercentra": 2859,
      "metal": 2860,
      "carry": 2861,
      "largest": 2862,
      "largely": 2863,
      "captured": 2864,
      "Rosen": 2865,
      "awa": 2866,
      "ipated": 2867,
      "classification": 2868,
      "ifications": 2869,
      "storms": 2870,
      "western": 2871,
      "defensive": 2872,
      "descri": 2873,
      "descend": 2874,
      "carrier": 2875,
      "hulled": 2876,
      "strikes": 2877,
      "azi": 2878,
      "decision": 2879,
      "transferred": 2880,
      "visional": 2881,
      "Associ": 2882,
      "diffic": 2883,
      "lished": 2884,
      "critical": 2885,
      "vessel": 2886,
      "estimates": 2887,
      "views": 2888,
      "float": 2889,
      "extensive": 2890,
      "distin": 2891,
      "distingu": 2892,
      "appearance": 2893,
      "Lieutenant": 2894,
      "Second": 2895,
      "occip": 2896,
      "problem": 2897,
      "Engineer": 2898,
      "northern": 2899,
      "thickness": 2900,
      "approach": 2901,
      "literature": 2902,
      "influence": 2903,
      "remained": 2904,
      "remaining": 2905,
      "moving": 2906,
      "affe": 2907,
      "basal": 2908,
      "earliest": 2909,
      "supporting": 2910,
      "identified": 2911,
      "Provisional": 2912,
      "help": 2913,
      "magazines": 2914,
      "Russia": 2915,
      "Below": 2916,
      "previously": 2917,
      "pleuro": 2918,
      "install": 2919,
      "adopted": 2920,
      "individual": 2921,
      "Americans": 2922,
      "engagement": 2923,
      "increasingly": 2924,
      "mission": 2925,
      "commentary": 2926,
      "established": 2927,
      "failed": 2928,
      "changed": 2929,
      "bulk": 2930,
      "combined": 2931,
      "Austrian": 2932,
      "reptiles": 2933,
      "strategic": 2934,
      "Ironclads": 2935,
      "Confederate": 2936,
      "tactics": 2937,
      "announ": 2938,
      "practice": 2939,
      "published": 2940,
      "outside": 2941,
      "Edopo": 2942,
      "Kingdom": 2943,
      "frequently": 2944,
      "lissamphibians": 2945,
      "popular": 2946,
      "calibre": 2947,
      "Imperial": 2948,
      "Major": 2949,
      "infrared": 2950,
      "touchdown": 2951,
      "imetre": 2952,
      "immediately": 2953,
      "paralle": 2954,
      "Meteorolog": 2955,
      "casemate": 2956,
      "narchia": 2957,
      "April": 2958,
      "Limnarchia": 2959,
      "Pugong": 2960,
      "Taegu": 2961,
      "Wolver": 2962,
      "appreci": 2963,
      "32": 2964,
      "42": 2965,
      "98": 2966,
      "Au": 2967,
      "Air": 2968,
      "And": 2969,
      "Amp": 2970,
      "CI": 2971,
      "Cor": 2972,
      "Chile": 2973,
      "Cope": 2974,
      "Don": 2975,
      "Dick": 2976,
      "Doles": 2977,
      "Dante": 2978,
      "Ed": 2979,
      "East": 2980,
      "Egy": 2981,
      "God": 2982,
      "Haw": 2983,
      "Its": 2984,
      "Jive": 2985,
      "Kou": 2986,
      "Kure": 2987,
      "Krist": 2988,
      "Lis": 2989,
      "Lions": 2990,
      "Mc": 2991,
      "Mes": 2992,
      "Mas": 2993,
      "March": 2994,
      "Nam": 2995,
      "Nazi": 2996,
      "Pa": 2997,
      "Qu": 2998,
      "Ram": 2999,
      "Rhy": 3000,
      "Sal": 3001,
      "Shi": 3002,
      "Sur": 3003,
      "Str": 3004,
      "Sagin": 3005,
      "T2": 3006,
      "TE": 3007,
      "Tru": 3008,
      "Whis": 3009,
      "Ye": 3010,
      "Youn": 3011,
      "aid": 3012,
      "bol": 3013,
      "bore": 3014,
      "bod": 3015,
      "bru": 3016,
      "big": 3017,
      "cit": 3018,
      "cod": 3019,
      "cran": 3020,
      "cals": 3021,
      "dr": 3022,
      "div": 3023,
      "fif": 3024,
      "gation": 3025,
      "gain": 3026,
      "gover": 3027,
      "gosaur": 3028,
      "haw": 3029,
      "happ": 3030,
      "ibu": 3031,
      "iel": 3032,
      "iest": 3033,
      "ika": 3034,
      "ks": 3035,
      "mes": 3036,
      "mil": 3037,
      "match": 3038,
      "nine": 3039,
      "ood": 3040,
      "pap": 3041,
      "pain": 3042,
      "poun": 3043,
      "pped": 3044,
      "push": 3045,
      "rachi": 3046,
      "sw": 3047,
      "sand": 3048,
      "slo": 3049,
      "sens": 3050,
      "ti": 3051,
      "tid": 3052,
      "tained": 3053,
      "ues": 3054,
      "vill": 3055,
      "win": 3056,
      "wan": 3057,
      "won": 3058,
      "wif": 3059,
      "zHer": 3060,
      "thur": 3061,
      "instead": 3062,
      "reme": 3063,
      "enship": 3064,
      "stress": 3065,
      "status": 3066,
      "arte": 3067,
      "alities": 3068,
      "altern": 3069,
      "tooth": 3070,
      "isol": 3071,
      "rounding": 3072,
      "itary": 3073,
      "lear": 3074,
      "leve": 3075,
      "lepospondy": 3076,
      "acc": 3077,
      "acon": 3078,
      "enty": 3079,
      "entered": 3080,
      "iding": 3081,
      "omin": 3082,
      "omor": 3083,
      "bell": 3084,
      "forts": 3085,
      "ched": 3086,
      "champion": 3087,
      "ghter": 3088,
      "defeat": 3089,
      "determ": 3090,
      "deacon": 3091,
      "cept": 3092,
      "cles": 3093,
      "cting": 3094,
      "aven": 3095,
      "uske": 3096,
      "ligence": 3097,
      "conf": 3098,
      "conclu": 3099,
      "concentr": 3100,
      "contemporary": 3101,
      "versy": 3102,
      "sport": 3103,
      "rif": 3104,
      "rier": 3105,
      "rifl": 3106,
      "ety": 3107,
      "commer": 3108,
      "Inch": 3109,
      "olving": 3110,
      "propulsion": 3111,
      "plans": 3112,
      "platoon": 3113,
      "eman": 3114,
      "emer": 3115,
      "emph": 3116,
      "ney": 3117,
      "ressed": 3118,
      "resident": 3119,
      "1926": 3120,
      "ify": 3121,
      "ago": 3122,
      "ironments": 3123,
      "180": 3124,
      "183": 3125,
      "stry": 3126,
      "strain": 3127,
      "strument": 3128,
      "derived": 3129,
      "vey": 3130,
      "fired": 3131,
      "overcast": 3132,
      "overlook": 3133,
      "despite": 3134,
      "Char": 3135,
      "Christ": 3136,
      "evolution": 3137,
      "Combat": 3138,
      "phen": 3139,
      "Head": 3140,
      "turbines": 3141,
      "story": 3142,
      "useum": 3143,
      "2005": 3144,
      "else": 3145,
      "formation": 3146,
      "flu": 3147,
      "flag": 3148,
      "means": 3149,
      "method": 3150,
      "build": 3151,
      "scale": 3152,
      "screw": 3153,
      "landfall": 3154,
      "ancestor": 3155,
      "common": 3156,
      "includes": 3157,
      "whole": 3158,
      "110": 3159,
      "metre": 3160,
      "worked": 3161,
      "capable": 3162,
      "capito": 3163,
      "Rock": 3164,
      "burn": 3165,
      "classified": 3166,
      "Arche": 3167,
      "Arthur": 3168,
      "daylight": 3169,
      "throughout": 3170,
      "lifestyle": 3171,
      "ways": 3172,
      "divisions": 3173,
      "portr": 3174,
      "secondary": 3175,
      "defend": 3176,
      "banding": 3177,
      "surface": 3178,
      "surrounding": 3179,
      "loaders": 3180,
      "archdeacon": 3181,
      "advanced": 3182,
      "strike": 3183,
      "jected": 3184,
      "ribs": 3185,
      "relation": 3186,
      "techn": 3187,
      "decade": 3188,
      "consider": 3189,
      "patterns": 3190,
      "writers": 3191,
      "140": 3192,
      "calc": 3193,
      "widely": 3194,
      "deploy": 3195,
      "ginia": 3196,
      "trapoda": 3197,
      "author": 3198,
      "southward": 3199,
      "reference": 3200,
      "allowing": 3201,
      "extreme": 3202,
      "planned": 3203,
      "sailed": 3204,
      "fitzHer": 3205,
      "occur": 3206,
      "Coast": 3207,
      "general": 3208,
      "generally": 3209,
      "minutes": 3210,
      "northeast": 3211,
      "sixth": 3212,
      "particular": 3213,
      "originally": 3214,
      "brother": 3215,
      "join": 3216,
      "Germany": 3217,
      "marine": 3218,
      "cert": 3219,
      "opoidea": 3220,
      "leading": 3221,
      "conversion": 3222,
      "weakened": 3223,
      "born": 3224,
      "vocals": 3225,
      "suffer": 3226,
      "superstructure": 3227,
      "Harbour": 3228,
      "equival": 3229,
      "slowly": 3230,
      "provided": 3231,
      "Colle": 3232,
      "ocephal": 3233,
      "Eryops": 3234,
      "Track": 3235,
      "believed": 3236,
      "completely": 3237,
      "Within": 3238,
      "witness": 3239,
      "reason": 3240,
      "changes": 3241,
      "preparation": 3242,
      "coastal": 3243,
      "Labyrinthodonta": 3244,
      "introduction": 3245,
      "introduced": 3246,
      "Class": 3247,
      "Western": 3248,
      "drums": 3249,
      "friendly": 3250,
      "initially": 3251,
      "barbette": 3252,
      "barbettes": 3253,
      "Palm": 3254,
      "dissorophoids": 3255,
      "escaped": 3256,
      "college": 3257,
      "European": 3258,
      "Broke": 3259,
      "bottom": 3260,
      "months": 3261,
      "Alex": 3262,
      "Mya": 3263,
      "Tetrapoda": 3264,
      "Tropical": 3265,
      "favour": 3266,
      "separate": 3267,
      "telligence": 3268,
      "deliver": 3269,
      "boilers": 3270,
      "equipped": 3271,
      "smoothbore": 3272,
      "Haynes": 3273,
      "Merc": 3274,
      "schol": 3275,
      "reinforce": 3276,
      "conflict": 3277,
      "necessary": 3278,
      "brachyopoids": 3279,
      "characteristics": 3280,
      "Georg": 3281,
      "virtually": 3282,
      "tympanum": 3283,
      "Evolution": 3284,
      "Eleuther": 3285,
      "Eighth": 3286,
      "Febru": 3287,
      "Virginia": 3288,
      "environments": 3289,
      "lyrics": 3290,
      "concern": 3291,
      "Indian": 3292,
      "vehicles": 3293,
      "warfare": 3294,
      "descendants": 3295,
      "occipital": 3296,
      "pleurocentra": 3297,
      "Wolverines": 3298,
      "Amphib": 3299,
      "Doleserpeton": 3300,
      "Egypt": 3301,
      "Kouma": 3302,
      "Lissa": 3303,
      "Masan": 3304,
      "Quarte": 3305,
      "Rhytid": 3306,
      "Saginaw": 3307,
      "Whishaw": 3308,
      "divided": 3309,
      "military": 3310,
      "village": 3311,
      "lepospondyls": 3312,
      "uskeli": 3313,
      "emphas": 3314,
      "fitzHerbert": 3315,
      "equivalent": 3316,
      "Eleuthera": 3317,
      "February": 3318,
      "Quartets": 3319,
      "Rhytidoste": 3320,
      "34": 3321,
      "48": 3322,
      "400": 3323,
      "64": 3324,
      "68": 3325,
      "78": 3326,
      "Ab": 3327,
      "Broad": 3328,
      "Base": 3329,
      "Brun": 3330,
      "BEN": 3331,
      "Cr": 3332,
      "Can": 3333,
      "Cal": 3334,
      "Cit": 3335,
      "Cur": 3336,
      "City": 3337,
      "Da": 3338,
      "Do": 3339,
      "Det": 3340,
      "Dev": 3341,
      "El": 3342,
      "Ear": 3343,
      "Each": 3344,
      "Euskeli": 3345,
      "Fer": 3346,
      "Fre": 3347,
      "Face": 3348,
      "Falk": 3349,
      "Gr": 3350,
      "Greg": 3351,
      "Great": 3352,
      "HS": 3353,
      "Hen": 3354,
      "Hall": 3355,
      "Hart": 3356,
      "Hamp": 3357,
      "Hurricane": 3358,
      "Hung": 3359,
      "If": 3360,
      "Just": 3361,
      "Jup": 3362,
      "Jae": 3363,
      "Jared": 3364,
      "Lu": 3365,
      "Land": 3366,
      "Mo": 3367,
      "Mid": 3368,
      "More": 3369,
      "MHS": 3370,
      "Nor": 3371,
      "Not": 3372,
      "Napo": 3373,
      "Oz": 3374,
      "Oly": 3375,
      "Oce": 3376,
      "Oper": 3377,
      "Pay": 3378,
      "Pel": 3379,
      "Pae": 3380,
      "Prin": 3381,
      "RE": 3382,
      "Rou": 3383,
      "Rob": 3384,
      "Rhachitom": 3385,
      "SA": 3386,
      "So": 3387,
      "Sin": 3388,
      "Spr": 3389,
      "Satellite": 3390,
      "Ten": 3391,
      "Thi": 3392,
      "Tex": 3393,
      "Time": 3394,
      "Tek": 3395,
      "Times": 3396,
      "UK": 3397,
      "WBEN": 3398,
      "ban": 3399,
      "bal": 3400,
      "bound": 3401,
      "bility": 3402,
      "biting": 3403,
      "badly": 3404,
      "cr": 3405,
      "cially": 3406,
      "dae": 3407,
      "dig": 3408,
      "eas": 3409,
      "eah": 3410,
      "fun": 3411,
      "fut": 3412,
      "fought": 3413,
      "fiction": 3414,
      "father": 3415,
      "gi": 3416,
      "ghe": 3417,
      "gren": 3418,
      "got": 3419,
      "grad": 3420,
      "games": 3421,
      "hon": 3422,
      "hed": 3423,
      "hac": 3424,
      "hom": 3425,
      "hun": 3426,
      "hab": 3427,
      "hits": 3428,
      "hai": 3429,
      "ix": 3430,
      "ither": 3431,
      "ibut": 3432,
      "kW": 3433,
      "kchin": 3434,
      "lous": 3435,
      "lived": 3436,
      "lives": 3437,
      "mat": 3438,
      "mus": 3439,
      "might": 3440,
      "must": 3441,
      "mature": 3442,
      "memb": 3443,
      "non": 3444,
      "nment": 3445,
      "nature": 3446,
      "oid": 3447,
      "pit": 3448,
      "padd": 3449,
      "pier": 3450,
      "ral": 3451,
      "sn": 3452,
      "sis": 3453,
      "spo": 3454,
      "swe": 3455,
      "ske": 3456,
      "sons": 3457,
      "sunk": 3458,
      "skey": 3459,
      "tled": 3460,
      "tail": 3461,
      "tidae": 3462,
      "vict": 3463,
      "wa": 3464,
      "whel": 3465,
      "wrought": 3466,
      "wides": 3467,
      "yod": 3468,
      "yeah": 3469,
      "ze": 3470,
      "zo": 3471,
      "ǜshi": 3472,
      "thin": 3473,
      "ining": 3474,
      "iness": 3475,
      "inated": 3476,
      "inally": 3477,
      "incor": 3478,
      "instrument": 3479,
      "intelligence": 3480,
      "anish": 3481,
      "eror": 3482,
      "eded": 3483,
      "edge": 3484,
      "edsport": 3485,
      "real": 3486,
      "renew": 3487,
      "resem": 3488,
      "recovered": 3489,
      "reconnaissance": 3490,
      "ata": 3491,
      "orpho": 3492,
      "enc": 3493,
      "ency": 3494,
      "stan": 3495,
      "step": 3496,
      "arc": 3497,
      "aries": 3498,
      "arrange": 3499,
      "aser": 3500,
      "asure": 3501,
      "associ": 3502,
      "tow": 3503,
      "tobat": 3504,
      "toskey": 3505,
      "isms": 3506,
      "rothor": 3507,
      "iter": 3508,
      "itable": 3509,
      "adult": 3510,
      "acity": 3511,
      "highe": 3512,
      "see": 3513,
      "urch": 3514,
      "urstan": 3515,
      "ilians": 3516,
      "amaz": 3517,
      "amorpho": 3518,
      "belong": 3519,
      "lot": 3520,
      "forcing": 3521,
      "ima": 3522,
      "impression": 3523,
      "imeror": 3524,
      "tery": 3525,
      "terms": 3526,
      "gets": 3527,
      "clip": 3528,
      "usion": 3529,
      "usive": 3530,
      "usually": 3531,
      "lied": 3532,
      "lift": 3533,
      "lighter": 3534,
      "consc": 3535,
      "constrain": 3536,
      "aped": 3537,
      "trave": 3538,
      "true": 3539,
      "training": 3540,
      "spl": 3541,
      "sumed": 3542,
      "mod": 3543,
      "modif": 3544,
      "attention": 3545,
      "etto": 3546,
      "compe": 3547,
      "complic": 3548,
      "Independent": 3549,
      "plate": 3550,
      "plagio": 3551,
      "emperor": 3552,
      "nect": 3553,
      "neither": 3554,
      "perfe": 3555,
      "1950": 3556,
      "1969": 3557,
      "aga": 3558,
      "aggress": 3559,
      "astation": 3560,
      "ansion": 3561,
      "fel": 3562,
      "feet": 3563,
      "feld": 3564,
      "sage": 3565,
      "oppos": 3566,
      "opids": 3567,
      "strated": 3568,
      "strict": 3569,
      "cladogram": 3570,
      "raids": 3571,
      "army": 3572,
      "box": 3573,
      "keep": 3574,
      "antly": 3575,
      "ranch": 3576,
      "overwhel": 3577,
      "Chart": 3578,
      "active": 3579,
      "activity": 3580,
      "companies": 3581,
      "turn": 3582,
      "stegocephal": 3583,
      "pread": 3584,
      "places": 3585,
      "saurids": 3586,
      "flat": 3587,
      "attered": 3588,
      "duct": 3589,
      "Thurstan": 3590,
      "partially": 3591,
      "caec": 3592,
      "mean": 3593,
      "warning": 3594,
      "structed": 3595,
      "Amerika": 3596,
      "sche": 3597,
      "ancestral": 3598,
      "Recent": 3599,
      "obatrach": 3600,
      "upon": 3601,
      "upper": 3602,
      "display": 3603,
      "engaged": 3604,
      "commiss": 3605,
      "velocity": 3606,
      "whose": 3607,
      "interse": 3608,
      "interpre": 3609,
      "State": 3610,
      "capacity": 3611,
      "2010": 3612,
      "content": 3613,
      "contact": 3614,
      "retained": 3615,
      "foc": 3616,
      "1947": 3617,
      "southeast": 3618,
      "logy": 3619,
      "rounded": 3620,
      "background": 3621,
      "bring": 3622,
      "brid": 3623,
      "lightly": 3624,
      "ctively": 3625,
      "nearly": 3626,
      "archbishop": 3627,
      "advance": 3628,
      "northward": 3629,
      "vibr": 3630,
      "albums": 3631,
      "1875": 3632,
      "modernization": 3633,
      "guest": 3634,
      "fleets": 3635,
      "transition": 3636,
      "expansion": 3637,
      "simple": 3638,
      "755": 3639,
      "protect": 3640,
      "Adri": 3641,
      "Adolf": 3642,
      "barrel": 3643,
      "names": 3644,
      "1861": 3645,
      "1862": 3646,
      "Metopo": 3647,
      "inflicted": 3648,
      "depiction": 3649,
      "subject": 3650,
      "ultim": 3651,
      "Micro": 3652,
      "tops": 3653,
      "closely": 3654,
      "historian": 3655,
      "passes": 3656,
      "passing": 3657,
      "ximately": 3658,
      "settled": 3659,
      "Allmusic": 3660,
      "ublic": 3661,
      "receptions": 3662,
      "allows": 3663,
      "cruiser": 3664,
      "sailing": 3665,
      "torpedoes": 3666,
      "occup": 3667,
      "1982": 3668,
      "1983": 3669,
      "1980s": 3670,
      "England": 3671,
      "Cow": 3672,
      "III": 3673,
      "minor": 3674,
      "minim": 3675,
      "approved": 3676,
      "species": 3677,
      "mpia": 3678,
      "senior": 3679,
      "weapon": 3680,
      "participated": 3681,
      "Armstrong": 3682,
      "caster": 3683,
      "shows": 3684,
      "videos": 3685,
      "German": 3686,
      "Gerrothor": 3687,
      "arrived": 3688,
      "begins": 3689,
      "certain": 3690,
      "1933": 3691,
      "1859": 3692,
      "sized": 3693,
      "Confuc": 3694,
      "Islands": 3695,
      "Weedsport": 3696,
      "operated": 3697,
      "operations": 3698,
      "suggesting": 3699,
      "primary": 3700,
      "purgation": 3701,
      "directly": 3702,
      "Harvey": 3703,
      "mortars": 3704,
      "visible": 3705,
      "controversy": 3706,
      "instance": 3707,
      "adoption": 3708,
      "connected": 3709,
      "penetrate": 3710,
      "Spanish": 3711,
      "Trimeror": 3712,
      "drove": 3713,
      "genus": 3714,
      "twenty": 3715,
      "crewmen": 3716,
      "Embol": 3717,
      "crown": 3718,
      "crocod": 3719,
      "frigate": 3720,
      "relig": 3721,
      "lette": 3722,
      "fortifications": 3723,
      "contrast": 3724,
      "needed": 3725,
      "1840s": 3726,
      "eventually": 3727,
      "indicates": 3728,
      "attempts": 3729,
      "Labyrinthodontia": 3730,
      "phoon": 3731,
      "rainfall": 3732,
      "young": 3733,
      "younger": 3734,
      "relatively": 3735,
      "Confederacy": 3736,
      "Petoskey": 3737,
      "dissorophoid": 3738,
      "famil": 3739,
      "graph": 3740,
      "graphy": 3741,
      "house": 3742,
      "escape": 3743,
      "experience": 3744,
      "experienced": 3745,
      "Background": 3746,
      "Paris": 3747,
      "copies": 3748,
      "freeboard": 3749,
      "growth": 3750,
      "prominent": 3751,
      "squad": 3752,
      "entirely": 3753,
      "consisted": 3754,
      "Trematosauria": 3755,
      "freshman": 3756,
      "targets": 3757,
      "titled": 3758,
      "accompl": 3759,
      "amidships": 3760,
      "temperature": 3761,
      "Among": 3762,
      "Singles": 3763,
      "innov": 3764,
      "attracted": 3765,
      "study": 3766,
      "stopped": 3767,
      "preserved": 3768,
      "Capitosauria": 3769,
      "analyses": 3770,
      "phylogenet": 3771,
      "humanity": 3772,
      "briefly": 3773,
      "catapults": 3774,
      "Bahamas": 3775,
      "Despite": 3776,
      "juven": 3777,
      "kilogram": 3778,
      "piece": 3779,
      "expressed": 3780,
      "article": 3781,
      "Rosenfeld": 3782,
      "Association": 3783,
      "Edopoidea": 3784,
      "Meteorological": 3785,
      "appreciated": 3786,
      "Austral": 3787,
      "Corps": 3788,
      "Truth": 3789,
      "Yeats": 3790,
      "Young": 3791,
      "pounder": 3792,
      "isolated": 3793,
      "omorph": 3794,
      "commerce": 3795,
      "overlooking": 3796,
      "occurred": 3797,
      "suffering": 3798,
      "Alexand": 3799,
      "Georgia": 3800,
      "Brunetto": 3801,
      "Crime": 3802,
      "Citiz": 3803,
      "Euskelia": 3804,
      "Freeman": 3805,
      "Facebook": 3806,
      "Hampton": 3807,
      "Jupiter": 3808,
      "Jaeger": 3809,
      "MHSAA": 3810,
      "Ozawa": 3811,
      "Olympia": 3812,
      "Ocean": 3813,
      "Operation": 3814,
      "Peltobat": 3815,
      "Paekchin": 3816,
      "Prince": 3817,
      "Route": 3818,
      "Rhachitomi": 3819,
      "Texas": 3820,
      "Teku": 3821,
      "future": 3822,
      "grenades": 3823,
      "hachis": 3824,
      "membran": 3825,
      "skele": 3826,
      "widespread": 3827,
      "instruments": 3828,
      "highest": 3829,
      "modified": 3830,
      "aggressive": 3831,
      "stegocephalians": 3832,
      "caecilians": 3833,
      "obatrachus": 3834,
      "Gerrothorax": 3835,
      "Confucian": 3836,
      "Trimerorhachis": 3837,
      "120": 3838,
      "125": 3839,
      "225": 3840,
      "36": 3841,
      "44": 3842,
      "47": 3843,
      "450": 3844,
      "58": 3845,
      "62": 3846,
      "63": 3847,
      "67": 3848,
      "6th": 3849,
      "770": 3850,
      "94": 3851,
      "Ap": 3852,
      "Award": 3853,
      "Afr": 3854,
      "Bor": 3855,
      "Big": 3856,
      "Brad": 3857,
      "Branch": 3858,
      "Ca": 3859,
      "Cour": 3860,
      "Crit": 3861,
      "Den": 3862,
      "Dou": 3863,
      "Day": 3864,
      "Dep": 3865,
      "Def": 3866,
      "Dissoropho": 3867,
      "Domin": 3868,
      "Eric": 3869,
      "FL": 3870,
      "Fa": 3871,
      "Fort": 3872,
      "Follow": 3873,
      "Factor": 3874,
      "Gun": 3875,
      "Hi": 3876,
      "Jack": 3877,
      "Jax": 3878,
      "Ki": 3879,
      "Ky": 3880,
      "Ken": 3881,
      "Kamp": 3882,
      "Kron": 3883,
      "Krup": 3884,
      "Liss": 3885,
      "Lund": 3886,
      "MA": 3887,
      "Mor": 3888,
      "Mil": 3889,
      "Mag": 3890,
      "Mod": 3891,
      "Miss": 3892,
      "NFL": 3893,
      "OK": 3894,
      "Ouel": 3895,
      "Pre": 3896,
      "Phi": 3897,
      "Pur": 3898,
      "Pent": 3899,
      "Pier": 3900,
      "RI": 3901,
      "Rich": 3902,
      "ROK": 3903,
      "Sat": 3904,
      "Sou": 3905,
      "Sam": 3906,
      "Sav": 3907,
      "Scho": 3908,
      "Sub": 3909,
      "School": 3910,
      "T1": 3911,
      "Tele": 3912,
      "Vick": 3913,
      "Vau": 3914,
      "WI": 3915,
      "Wes": 3916,
      "Writ": 3917,
      "Wei": 3918,
      "Yan": 3919,
      "Yac": 3920,
      "Yates": 3921,
      "Ze": 3922,
      "aur": 3923,
      "ahead": 3924,
      "ben": 3925,
      "bus": 3926,
      "cand": 3927,
      "cous": 3928,
      "cult": 3929,
      "dition": 3930,
      "dang": 3931,
      "dram": 3932,
      "dwell": 3933,
      "drew": 3934,
      "eu": 3935,
      "eld": 3936,
      "eve": 3937,
      "echo": 3938,
      "ecost": 3939,
      "fed": 3940,
      "fat": 3941,
      "fing": 3942,
      "farm": 3943,
      "fru": 3944,
      "fold": 3945,
      "funding": 3946,
      "gas": 3947,
      "gree": 3948,
      "gold": 3949,
      "gained": 3950,
      "gator": 3951,
      "ha": 3952,
      "here": 3953,
      "hop": 3954,
      "holes": 3955,
      "ient": 3956,
      "istr": 3957,
      "iary": 3958,
      "jour": 3959,
      "jud": 3960,
      "jima": 3961,
      "kk": 3962,
      "ket": 3963,
      "lantic": 3964,
      "lǜshi": 3965,
      "mb": 3966,
      "mur": 3967,
      "mmer": 3968,
      "mines": 3969,
      "mile": 3970,
      "nast": 3971,
      "nia": 3972,
      "ozo": 3973,
      "ply": 3974,
      "pound": 3975,
      "passa": 3976,
      "parent": 3977,
      "ptery": 3978,
      "rar": 3979,
      "riv": 3980,
      "rus": 3981,
      "rare": 3982,
      "rors": 3983,
      "sank": 3984,
      "sense": 3985,
      "slightly": 3986,
      "tre": 3987,
      "tic": 3988,
      "tus": 3989,
      "tight": 3990,
      "tens": 3991,
      "trem": 3992,
      "treat": 3993,
      "ufact": 3994,
      "vic": 3995,
      "vent": 3996,
      "vious": 3997,
      "vae": 3998,
      "vice": 3999,
      "wall": 4000,
      "yi": 4001,
      "zon": 4002,
      "zone": 4003,
      "thunder": 4004,
      "thened": 4005,
      "inj": 4006,
      "inson": 4007,
      "information": 4008,
      "anwhile": 4009,
      "ancing": 4010,
      "ert": 4011,
      "rec": 4012,
      "reve": 4013,
      "reach": 4014,
      "restor": 4015,
      "rebuilt": 4016,
      "replacing": 4017,
      "atro": 4018,
      "enlar": 4019,
      "ston": 4020,
      "stad": 4021,
      "stated": 4022,
      "states": 4023,
      "stages": 4024,
      "stood": 4025,
      "arre": 4026,
      "aris": 4027,
      "arily": 4028,
      "aland": 4029,
      "alys": 4030,
      "espe": 4031,
      "ases": 4032,
      "assem": 4033,
      "island": 4034,
      "islands": 4035,
      "roit": 4036,
      "rolled": 4037,
      "oub": 4038,
      "lete": 4039,
      "heard": 4040,
      "height": 4041,
      "adel": 4042,
      "accur": 4043,
      "accus": 4044,
      "hist": 4045,
      "hima": 4046,
      "lying": 4047,
      "irit": 4048,
      "iling": 4049,
      "idence": 4050,
      "test": 4051,
      "tested": 4052,
      "unsu": 4053,
      "unity": 4054,
      "unsuccessful": 4055,
      "bel": 4056,
      "beam": 4057,
      "bearing": 4058,
      "lod": 4059,
      "loso": 4060,
      "love": 4061,
      "loyal": 4062,
      "ford": 4063,
      "pop": 4064,
      "chor": 4065,
      "chall": 4066,
      "chbishop": 4067,
      "terrain": 4068,
      "deb": 4069,
      "debut": 4070,
      "delay": 4071,
      "detail": 4072,
      "degree": 4073,
      "cell": 4074,
      "ceived": 4075,
      "clash": 4076,
      "cts": 4077,
      "condy": 4078,
      "conserv": 4079,
      "constructed": 4080,
      "verse": 4081,
      "tru": 4082,
      "tran": 4083,
      "spar": 4084,
      "split": 4085,
      "space": 4086,
      "sup": 4087,
      "summer": 4088,
      "mode": 4089,
      "withstand": 4090,
      "withdrew": 4091,
      "llate": 4092,
      "attor": 4093,
      "comments": 4094,
      "composed": 4095,
      "Indu": 4096,
      "olas": 4097,
      "olina": 4098,
      "proce": 4099,
      "promo": 4100,
      "prove": 4101,
      "proposed": 4102,
      "ems": 4103,
      "emed": 4104,
      "abor": 4105,
      "abbot": 4106,
      "neg": 4107,
      "nell": 4108,
      "neot": 4109,
      "persed": 4110,
      "ression": 4111,
      "shipments": 4112,
      "shipbuilding": 4113,
      "195": 4114,
      "1928": 4115,
      "ulated": 4116,
      "fell": 4117,
      "qual": 4118,
      "opher": 4119,
      "opposed": 4120,
      "opened": 4121,
      "extr": 4122,
      "illa": 4123,
      "illing": 4124,
      "ours": 4125,
      "clades": 4126,
      "uma": 4127,
      "dered": 4128,
      "bow": 4129,
      "boy": 4130,
      "boat": 4131,
      "ideas": 4132,
      "gunfire": 4133,
      "gunboats": 4134,
      "ends": 4135,
      "poses": 4136,
      "possi": 4137,
      "onel": 4138,
      "onetheless": 4139,
      "ously": 4140,
      "ranges": 4141,
      "hot": 4142,
      "hole": 4143,
      "hosted": 4144,
      "overseas": 4145,
      "utical": 4146,
      "notes": 4147,
      "notch": 4148,
      "centimetre": 4149,
      "fertil": 4150,
      "outpost": 4151,
      "Chou": 4152,
      "Cheng": 4153,
      "actually": 4154,
      "USA": 4155,
      "eving": 4156,
      "evacu": 4157,
      "evolving": 4158,
      "compu": 4159,
      "compil": 4160,
      "compart": 4161,
      "compass": 4162,
      "compared": 4163,
      "cks": 4164,
      "phans": 4165,
      "phys": 4166,
      "Heavy": 4167,
      "turning": 4168,
      "storage": 4169,
      "worst": 4170,
      "leship": 4171,
      "2002": 4172,
      "Battleship": 4173,
      "prec": 4174,
      "prey": 4175,
      "precur": 4176,
      "larval": 4177,
      "larvae": 4178,
      "shp": 4179,
      "shore": 4180,
      "shallow": 4181,
      "shaped": 4182,
      "pedice": 4183,
      "attacking": 4184,
      "flour": 4185,
      "sson": 4186,
      "Three": 4187,
      "partly": 4188,
      "measure": 4189,
      "press": 4190,
      "typical": 4191,
      "Warren": 4192,
      "scor": 4193,
      "scattered": 4194,
      "themes": 4195,
      "intense": 4196,
      "Recording": 4197,
      "Reconnaissance": 4198,
      "obsc": 4199,
      "obser": 4200,
      "observed": 4201,
      "obtained": 4202,
      "obvious": 4203,
      "disp": 4204,
      "dispersed": 4205,
      "roadblock": 4206,
      "undred": 4207,
      "label": 4208,
      "iously": 4209,
      "interview": 4210,
      "metamorpho": 4211,
      "regarded": 4212,
      "Story": 4213,
      "effort": 4214,
      "efforts": 4215,
      "prof": 4216,
      "princ": 4217,
      "rule": 4218,
      "green": 4219,
      "playing": 4220,
      "iox": 4221,
      "numbered": 4222,
      "manner": 4223,
      "manuel": 4224,
      "manufact": 4225,
      "retain": 4226,
      "condition": 4227,
      "fog": 4228,
      "fox": 4229,
      "food": 4230,
      "focus": 4231,
      "1943": 4232,
      "1949": 4233,
      "parts": 4234,
      "powers": 4235,
      "powered": 4236,
      "Archbishop": 4237,
      "Arnell": 4238,
      "rangefind": 4239,
      "suchus": 4240,
      "backs": 4241,
      "understanding": 4242,
      "damaging": 4243,
      "Stephen": 4244,
      "starring": 4245,
      "urring": 4246,
      "defences": 4247,
      "bands": 4248,
      "sisted": 4249,
      "advances": 4250,
      "How": 4251,
      "Holy": 4252,
      "1870": 4253,
      "1876": 4254,
      "newly": 4255,
      "305": 4256,
      "child": 4257,
      "readers": 4258,
      "covering": 4259,
      "mucous": 4260,
      "feature": 4261,
      "featured": 4262,
      "Atlantic": 4263,
      "techa": 4264,
      "techno": 4265,
      "continuing": 4266,
      "Peru": 4267,
      "cannot": 4268,
      "finan": 4269,
      "intensities": 4270,
      "Album": 4271,
      "remark": 4272,
      "releasing": 4273,
      "150": 4274,
      "152": 4275,
      "hydra": 4276,
      "radars": 4277,
      "Addition": 4278,
      "charge": 4279,
      "complex": 4280,
      "Regiments": 4281,
      "Carrier": 4282,
      "Carolina": 4283,
      "Meanwhile": 4284,
      "tonnes": 4285,
      "subsequ": 4286,
      "ultaneous": 4287,
      "country": 4288,
      "medical": 4289,
      "ements": 4290,
      "Analys": 4291,
      "limb": 4292,
      "receiving": 4293,
      "references": 4294,
      "extin": 4295,
      "What": 4296,
      "curved": 4297,
      "invent": 4298,
      "invasion": 4299,
      "nevertheless": 4300,
      "Dvinosaur": 4301,
      "column": 4302,
      "occasion": 4303,
      "xture": 4304,
      "17th": 4305,
      "Coch": 4306,
      "norm": 4307,
      "influential": 4308,
      "broke": 4309,
      "midnight": 4310,
      "Gerobatrachus": 4311,
      "basket": 4312,
      "master": 4313,
      "excell": 4314,
      "shortly": 4315,
      "buildings": 4316,
      "rachus": 4317,
      "leader": 4318,
      "issorophi": 4319,
      "Plagio": 4320,
      "voted": 4321,
      "vocal": 4322,
      "variet": 4323,
      "resul": 4324,
      "helped": 4325,
      "ategory": 4326,
      "surviving": 4327,
      "survivors": 4328,
      "ranchial": 4329,
      "directors": 4330,
      "Because": 4331,
      "bombs": 4332,
      "visit": 4333,
      "province": 4334,
      "society": 4335,
      "stereospondylous": 4336,
      "Colonel": 4337,
      "marked": 4338,
      "connection": 4339,
      "weeks": 4340,
      "engagements": 4341,
      "Spain": 4342,
      "film": 4343,
      "films": 4344,
      "mix": 4345,
      "mixture": 4346,
      "running": 4347,
      "heaviest": 4348,
      "propelled": 4349,
      "criticism": 4350,
      "blockade": 4351,
      "Captain": 4352,
      "Emmanuel": 4353,
      "bulge": 4354,
      "events": 4355,
      "prepared": 4356,
      "engineer": 4357,
      "guitarist": 4358,
      "Admiralty": 4359,
      "Austria": 4360,
      "Blackout": 4361,
      "Evening": 4362,
      "Geer": 4363,
      "darkness": 4364,
      "initial": 4365,
      "analy": 4366,
      "reptile": 4367,
      "teams": 4368,
      "versions": 4369,
      "Boys": 4370,
      "Fourth": 4371,
      "Simon": 4372,
      "hangar": 4373,
      "starting": 4374,
      "roofs": 4375,
      "convin": 4376,
      "practical": 4377,
      "squads": 4378,
      "represented": 4379,
      "poorly": 4380,
      "capture": 4381,
      "communication": 4382,
      "communications": 4383,
      "farther": 4384,
      "grand": 4385,
      "palate": 4386,
      "orders": 4387,
      "accommod": 4388,
      "located": 4389,
      "currently": 4390,
      "Leonti": 4391,
      "bombard": 4392,
      "CCC": 4393,
      "fishes": 4394,
      "saying": 4395,
      "vulnerable": 4396,
      "vulnerability": 4397,
      "whether": 4398,
      "secure": 4399,
      "selected": 4400,
      "traditional": 4401,
      "openings": 4402,
      "apparently": 4403,
      "Ganocephal": 4404,
      "Kotecha": 4405,
      "Orphans": 4406,
      "Republic": 4407,
      "System": 4408,
      "THE": 4409,
      "autumn": 4410,
      "philoso": 4411,
      "ridges": 4412,
      "taxa": 4413,
      "respectively": 4414,
      "political": 4415,
      "platform": 4416,
      "weighed": 4417,
      "feeding": 4418,
      "possessed": 4419,
      "preceding": 4420,
      "metoposaurids": 4421,
      "underside": 4422,
      "difficult": 4423,
      "floatplanes": 4424,
      "distinct": 4425,
      "distinguished": 4426,
      "affected": 4427,
      "installed": 4428,
      "bulkheads": 4429,
      "announcer": 4430,
      "popularity": 4431,
      "parallel": 4432,
      "Edward": 4433,
      "Mesozo": 4434,
      "bodies": 4435,
      "government": 4436,
      "ibuted": 4437,
      "painting": 4438,
      "learned": 4439,
      "bellion": 4440,
      "concentrated": 4441,
      "rifled": 4442,
      "residents": 4443,
      "1830s": 4444,
      "Christopher": 4445,
      "Headquarters": 4446,
      "flagship": 4447,
      "ancestors": 4448,
      "capitosauroids": 4449,
      "portrayed": 4450,
      "relationship": 4451,
      "technical": 4452,
      "deployed": 4453,
      "College": 4454,
      "Tracks": 4455,
      "Mercury": 4456,
      "Amphibam": 4457,
      "Egyptian": 4458,
      "Curse": 4459,
      "Daily": 4460,
      "Detroit": 4461,
      "Devastation": 4462,
      "Ferrar": 4463,
      "Midway": 4464,
      "Payne": 4465,
      "Third": 4466,
      "graded": 4467,
      "haiku": 4468,
      "paddle": 4469,
      "piercing": 4470,
      "swept": 4471,
      "victory": 4472,
      "incorpor": 4473,
      "associated": 4474,
      "constraints": 4475,
      "complicated": 4476,
      "fellow": 4477,
      "overwhelm": 4478,
      "meaning": 4479,
      "commissioned": 4480,
      "Adriatic": 4481,
      "ultimately": 4482,
      "Microsauria": 4483,
      "occupied": 4484,
      "crocodiles": 4485,
      "families": 4486,
      "innovations": 4487,
      "phylogenetic": 4488,
      "Crimean": 4489,
      "Citizenship": 4490,
      "Peltobatrachus": 4491,
      "Bradley": 4492,
      "Court": 4493,
      "Ericsson": 4494,
      "Following": 4495,
      "Jaxon": 4496,
      "Kronstad": 4497,
      "Krupp": 4498,
      "Lundin": 4499,
      "Modern": 4500,
      "Ouellette": 4501,
      "Pentecost": 4502,
      "Pierce": 4503,
      "Schoch": 4504,
      "Yacoub": 4505,
      "Zealand": 4506,
      "benef": 4507,
      "candid": 4508,
      "dramatic": 4509,
      "folded": 4510,
      "murder": 4511,
      "nasty": 4512,
      "passage": 4513,
      "pterygo": 4514,
      "rivals": 4515,
      "rarely": 4516,
      "trees": 4517,
      "enlarged": 4518,
      "especially": 4519,
      "Industry": 4520,
      "neoten": 4521,
      "Chengdu": 4522,
      "precurs": 4523,
      "pedicellate": 4524,
      "princip": 4525,
      "rangefinders": 4526,
      "hydraul": 4527,
      "Analysis": 4528,
      "basketball": 4529,
      "variety": 4530,
      "Ganocephala": 4531,
      "Mesozoic": 4532,
      "Kronstadt": 4533,
      "02": 4534,
      "03": 4535,
      "07": 4536,
      "09": 4537,
      "1184": 4538,
      "440": 4539,
      "72": 4540,
      "900": 4541,
      "AF": 4542,
      "AM": 4543,
      "AS": 4544,
      "Ay": 4545,
      "Age": 4546,
      "Act": 4547,
      "Ama": 4548,
      "Ba": 4549,
      "Br": 4550,
      "Bat": 4551,
      "Bud": 4552,
      "Brach": 4553,
      "Bash": 4554,
      "Batrach": 4555,
      "Cy": 4556,
      "Cas": 4557,
      "Cro": 4558,
      "Clo": 4559,
      "Cay": 4560,
      "Call": 4561,
      "Cra": 4562,
      "Cho": 4563,
      "Cret": 4564,
      "Cape": 4565,
      "Category": 4566,
      "DJ": 4567,
      "Dut": 4568,
      "Dame": 4569,
      "Diet": 4570,
      "ES": 4571,
      "Er": 4572,
      "End": 4573,
      "Eco": 4574,
      "Eads": 4575,
      "Fr": 4576,
      "Far": 4577,
      "Fur": 4578,
      "Fore": 4579,
      "Fame": 4580,
      "Further": 4581,
      "Fried": 4582,
      "Hun": 4583,
      "IT": 4584,
      "Ir": 4585,
      "Je": 4586,
      "Jane": 4587,
      "Kin": 4588,
      "Key": 4589,
      "LI": 4590,
      "Lo": 4591,
      "Lou": 4592,
      "Live": 4593,
      "Mu": 4594,
      "Med": 4595,
      "Mat": 4596,
      "Men": 4597,
      "Mad": 4598,
      "Mac": 4599,
      "Main": 4600,
      "M19": 4601,
      "Moun": 4602,
      "Mill": 4603,
      "Mart": 4604,
      "Mel": 4605,
      "Mortar": 4606,
      "Museum": 4607,
      "Ned": 4608,
      "Number": 4609,
      "Nations": 4610,
      "Nig": 4611,
      "OF": 4612,
      "Oke": 4613,
      "Orig": 4614,
      "Pon": 4615,
      "Pri": 4616,
      "Pol": 4617,
      "Pear": 4618,
      "Phy": 4619,
      "Punch": 4620,
      "Press": 4621,
      "Phon": 4622,
      "Red": 4623,
      "Rev": 4624,
      "Ridge": 4625,
      "Romer": 4626,
      "Song": 4627,
      "Sab": 4628,
      "Sich": 4629,
      "Sel": 4630,
      "Small": 4631,
      "Sele": 4632,
      "Show": 4633,
      "Sony": 4634,
      "Scler": 4635,
      "Swed": 4636,
      "Swif": 4637,
      "Ted": 4638,
      "Tang": 4639,
      "Treas": 4640,
      "TEN": 4641,
      "Tsus": 4642,
      "TAF": 4643,
      "UT": 4644,
      "Vev": 4645,
      "Vice": 4646,
      "Wis": 4647,
      "Worth": 4648,
      "Work": 4649,
      "Yuan": 4650,
      "Zh": 4651,
      "Zen": 4652,
      "Zit": 4653,
      "Zaz": 4654,
      "ao": 4655,
      "aith": 4656,
      "awn": 4657,
      "aff": 4658,
      "ajima": 4659,
      "bin": 4660,
      "bir": 4661,
      "boun": 4662,
      "bass": 4663,
      "bled": 4664,
      "black": 4665,
      "branchiosaur": 4666,
      "cri": 4667,
      "cul": 4668,
      "cra": 4669,
      "cred": 4670,
      "cot": 4671,
      "cance": 4672,
      "catch": 4673,
      "dv": 4674,
      "dong": 4675,
      "date": 4676,
      "dive": 4677,
      "dome": 4678,
      "diver": 4679,
      "dden": 4680,
      "dreadnought": 4681,
      "dancing": 4682,
      "diox": 4683,
      "eigh": 4684,
      "fans": 4685,
      "ffe": 4686,
      "fict": 4687,
      "filled": 4688,
      "faith": 4689,
      "gg": 4690,
      "gir": 4691,
      "giving": 4692,
      "gged": 4693,
      "hr": 4694,
      "har": 4695,
      "ham": 4696,
      "hol": 4697,
      "hundred": 4698,
      "ij": 4699,
      "ik": 4700,
      "ius": 4701,
      "iast": 4702,
      "iew": 4703,
      "iency": 4704,
      "kg": 4705,
      "king": 4706,
      "lé": 4707,
      "lain": 4708,
      "live": 4709,
      "lve": 4710,
      "lci": 4711,
      "lmark": 4712,
      "link": 4713,
      "matter": 4714,
      "mult": 4715,
      "mamm": 4716,
      "makes": 4717,
      "museum": 4718,
      "ns": 4719,
      "ny": 4720,
      "nin": 4721,
      "nat": 4722,
      "ners": 4723,
      "national": 4724,
      "narr": 4725,
      "nants": 4726,
      "oted": 4727,
      "oyang": 4728,
      "pon": 4729,
      "ping": 4730,
      "pou": 4731,
      "pion": 4732,
      "phe": 4733,
      "pil": 4734,
      "pted": 4735,
      "pare": 4736,
      "pag": 4737,
      "pits": 4738,
      "pment": 4739,
      "page": 4740,
      "pict": 4741,
      "ponto": 4742,
      "rich": 4743,
      "ride": 4744,
      "rhy": 4745,
      "sin": 4746,
      "sac": 4747,
      "sol": 4748,
      "save": 4749,
      "sort": 4750,
      "songs": 4751,
      "solution": 4752,
      "swit": 4753,
      "tto": 4754,
      "twe": 4755,
      "tag": 4756,
      "trou": 4757,
      "tau": 4758,
      "tissue": 4759,
      "von": 4760,
      "vil": 4761,
      "vary": 4762,
      "vacu": 4763,
      "vivors": 4764,
      "wre": 4765,
      "wart": 4766,
      "wave": 4767,
      "winter": 4768,
      "wise": 4769,
      "wright": 4770,
      "yopoidea": 4771,
      "zhou": 4772,
      "ásc": 4773,
      "ño": 4774,
      "thro": 4775,
      "think": 4776,
      "thony": 4777,
      "thed": 4778,
      "theor": 4779,
      "theme": 4780,
      "insp": 4781,
      "ination": 4782,
      "inery": 4783,
      "inci": 4784,
      "inner": 4785,
      "infil": 4786,
      "inhab": 4787,
      "anet": 4788,
      "erin": 4789,
      "erted": 4790,
      "onic": 4791,
      "onish": 4792,
      "onial": 4793,
      "ongest": 4794,
      "onwards": 4795,
      "edition": 4796,
      "edded": 4797,
      "reen": 4798,
      "rect": 4799,
      "retr": 4800,
      "reast": 4801,
      "rels": 4802,
      "report": 4803,
      "repair": 4804,
      "reproduced": 4805,
      "replic": 4806,
      "rejoined": 4807,
      "rejected": 4808,
      "atis": 4809,
      "atures": 4810,
      "orable": 4811,
      "ena": 4812,
      "enn": 4813,
      "enes": 4814,
      "enli": 4815,
      "encounter": 4816,
      "ster": 4817,
      "stic": 4818,
      "stone": 4819,
      "stant": 4820,
      "stations": 4821,
      "staged": 4822,
      "stow": 4823,
      "stayed": 4824,
      "arious": 4825,
      "argu": 4826,
      "alth": 4827,
      "aled": 4828,
      "aling": 4829,
      "always": 4830,
      "ands": 4831,
      "escor": 4832,
      "aside": 4833,
      "assumed": 4834,
      "tour": 4835,
      "today": 4836,
      "ises": 4837,
      "ising": 4838,
      "isive": 4839,
      "issi": 4840,
      "isman": 4841,
      "rol": 4842,
      "rose": 4843,
      "roles": 4844,
      "itu": 4845,
      "ingly": 4846,
      "outr": 4847,
      "ica": 4848,
      "ico": 4849,
      "icut": 4850,
      "ician": 4851,
      "leon": 4852,
      "leosaur": 4853,
      "leaf": 4854,
      "health": 4855,
      "ading": 4856,
      "adding": 4857,
      "adier": 4858,
      "acqu": 4859,
      "access": 4860,
      "accompany": 4861,
      "iring": 4862,
      "seph": 4863,
      "urity": 4864,
      "uries": 4865,
      "urance": 4866,
      "urbed": 4867,
      "ilio": 4868,
      "ilarly": 4869,
      "ents": 4870,
      "enter": 4871,
      "ivate": 4872,
      "ama": 4873,
      "amb": 4874,
      "ami": 4875,
      "amoun": 4876,
      "ider": 4877,
      "idler": 4878,
      "tect": 4879,
      "uns": 4880,
      "unit": 4881,
      "unknown": 4882,
      "bee": 4883,
      "bey": 4884,
      "beat": 4885,
      "begun": 4886,
      "belt": 4887,
      "forty": 4888,
      "pot": 4889,
      "pose": 4890,
      "imped": 4891,
      "immen": 4892,
      "images": 4893,
      "imming": 4894,
      "imperial": 4895,
      "territ": 4896,
      "note": 4897,
      "nove": 4898,
      "decl": 4899,
      "defe": 4900,
      "depar": 4901,
      "demon": 4902,
      "deton": 4903,
      "depression": 4904,
      "dekk": 4905,
      "deemed": 4906,
      "detect": 4907,
      "geant": 4908,
      "gelmark": 4909,
      "cement": 4910,
      "ceased": 4911,
      "clim": 4912,
      "clusive": 4913,
      "ctron": 4914,
      "lip": 4915,
      "confir": 4916,
      "condu": 4917,
      "consens": 4918,
      "conceived": 4919,
      "consin": 4920,
      "verleaf": 4921,
      "apped": 4922,
      "appoint": 4923,
      "aplain": 4924,
      "train": 4925,
      "tried": 4926,
      "trating": 4927,
      "spine": 4928,
      "sures": 4929,
      "summ": 4930,
      "sudden": 4931,
      "sulci": 4932,
      "lla": 4933,
      "lls": 4934,
      "llback": 4935,
      "attach": 4936,
      "attained": 4937,
      "ria": 4938,
      "etimes": 4939,
      "bust": 4940,
      "comed": 4941,
      "comes": 4942,
      "Insom": 4943,
      "Influ": 4944,
      "olt": 4945,
      "olly": 4946,
      "oldest": 4947,
      "aying": 4948,
      "prog": 4949,
      "proto": 4950,
      "proper": 4951,
      "proje": 4952,
      "pled": 4953,
      "plant": 4954,
      "plating": 4955,
      "plained": 4956,
      "plaining": 4957,
      "abled": 4958,
      "absent": 4959,
      "abreast": 4960,
      "neck": 4961,
      "neural": 4962,
      "periment": 4963,
      "persisted": 4964,
      "1975": 4965,
      "ounding": 4966,
      "ulf": 4967,
      "ulation": 4968,
      "ulty": 4969,
      "iful": 4970,
      "agree": 4971,
      "aggl": 4972,
      "astride": 4973,
      "astonish": 4974,
      "anything": 4975,
      "anshi": 4976,
      "sock": 4977,
      "solete": 4978,
      "odes": 4979,
      "feel": 4980,
      "quest": 4981,
      "quiet": 4982,
      "opidae": 4983,
      "arden": 4984,
      "expe": 4985,
      "exact": 4986,
      "exha": 4987,
      "strongest": 4988,
      "sile": 4989,
      "sight": 4990,
      "uman": 4991,
      "earth": 4992,
      "rail": 4993,
      "rage": 4994,
      "rael": 4995,
      "inely": 4996,
      "endiary": 4997,
      "endurance": 4998,
      "positive": 4999,
      "ession": 5000,
      "mentioned": 5001,
      "atedly": 5002,
      "pel": 5003,
      "asser": 5004,
      "rank": 5005,
      "overran": 5006,
      "utus": 5007,
      "notable": 5008,
      "desire": 5009,
      "20s": 5010,
      "centuries": 5011,
      "outstanding": 5012,
      "Church": 5013,
      "actual": 5014,
      "eval": 5015,
      "evidence": 5016,
      "compar": 5017,
      "comprom": 5018,
      "Heisman": 5019,
      "2001": 5020,
      "2009": 5021,
      "Divisions": 5022,
      "docks": 5023,
      "prepare": 5024,
      "ulls": 5025,
      "mostly": 5026,
      "istic": 5027,
      "sauridae": 5028,
      "positioning": 5029,
      "grouped": 5030,
      "iang": 5031,
      "usted": 5032,
      "rendered": 5033,
      "shaf": 5034,
      "Companies": 5035,
      "airbor": 5036,
      "airdro": 5037,
      "airstrikes": 5038,
      "flaw": 5039,
      "ssil": 5040,
      "oting": 5041,
      "Through": 5042,
      "causing": 5043,
      "Duilio": 5044,
      "pressures": 5045,
      "anger": 5046,
      "angle": 5047,
      "typhoon": 5048,
      "scape": 5049,
      "scutes": 5050,
      "scenes": 5051,
      "themsel": 5052,
      "landed": 5053,
      "landscape": 5054,
      "intention": 5055,
      "obranchial": 5056,
      "obsolete": 5057,
      "upgraded": 5058,
      "displaced": 5059,
      "discovered": 5060,
      "disadvantages": 5061,
      "displacement": 5062,
      "disagree": 5063,
      "knob": 5064,
      "math": 5065,
      "velopment": 5066,
      "iousness": 5067,
      "izes": 5068,
      "ppi": 5069,
      "Once": 5070,
      "Onond": 5071,
      "regist": 5072,
      "aeontologist": 5073,
      "carbon": 5074,
      "capability": 5075,
      "prison": 5076,
      "Road": 5077,
      "Roads": 5078,
      "bury": 5079,
      "burban": 5080,
      "aware": 5081,
      "contain": 5082,
      "contained": 5083,
      "playwright": 5084,
      "ankind": 5085,
      "amphibia": 5086,
      "calling": 5087,
      "fossil": 5088,
      "1946": 5089,
      "pariet": 5090,
      "sought": 5091,
      "Armor": 5092,
      "Arsen": 5093,
      "download": 5094,
      "foreign": 5095,
      "forecast": 5096,
      "therefore": 5097,
      "Noize": 5098,
      "underwater": 5099,
      "bony": 5100,
      "uga": 5101,
      "Stegocephal": 5102,
      "ports": 5103,
      "define": 5104,
      "defending": 5105,
      "advis": 5106,
      "advice": 5107,
      "ails": 5108,
      "produce": 5109,
      "1873": 5110,
      "element": 5111,
      "eleven": 5112,
      "electron": 5113,
      "modernized": 5114,
      "apore": 5115,
      "closed": 5116,
      "covers": 5117,
      "direction": 5118,
      "director": 5119,
      "waterline": 5120,
      "watertight": 5121,
      "signals": 5122,
      "frontal": 5123,
      "relatives": 5124,
      "decisive": 5125,
      "transfer": 5126,
      "transformed": 5127,
      "battlecruisers": 5128,
      "developing": 5129,
      "developments": 5130,
      "continues": 5131,
      "104": 5132,
      "10th": 5133,
      "23d": 5134,
      "cannon": 5135,
      "finish": 5136,
      "finished": 5137,
      "follows": 5138,
      "syn": 5139,
      "achiev": 5140,
      "Also": 5141,
      "Albin": 5142,
      "Enga": 5143,
      "simultaneous": 5144,
      "remes": 5145,
      "remnants": 5146,
      "release": 5147,
      "160": 5148,
      "161": 5149,
      "754": 5150,
      "757": 5151,
      "cius": 5152,
      "hybrid": 5153,
      "hyobranchial": 5154,
      "portions": 5155,
      "tracks": 5156,
      "tracker": 5157,
      "tracking": 5158,
      "destroying": 5159,
      "destroyers": 5160,
      "Connect": 5161,
      "barrels": 5162,
      "barrage": 5163,
      "gosauroidea": 5164,
      "naming": 5165,
      "choice": 5166,
      "charges": 5167,
      "vertebr": 5168,
      "1868": 5169,
      "structions": 5170,
      "Carl": 5171,
      "inflict": 5172,
      "suborder": 5173,
      "subjective": 5174,
      "1882": 5175,
      "1888": 5176,
      "centrum": 5177,
      "counted": 5178,
      "performances": 5179,
      "closest": 5180,
      "Angl": 5181,
      "Anthony": 5182,
      "Dead": 5183,
      "Joseph": 5184,
      "historical": 5185,
      "estimate": 5186,
      "viewed": 5187,
      "aceous": 5188,
      "stronger": 5189,
      "describing": 5190,
      "aii": 5191,
      "ffic": 5192,
      "mounting": 5193,
      "mountain": 5194,
      "seasons": 5195,
      "extremes": 5196,
      "cruising": 5197,
      "White": 5198,
      "distance": 5199,
      "disturbed": 5200,
      "latest": 5201,
      "teleph": 5202,
      "postcran": 5203,
      "sails": 5204,
      "sailors": 5205,
      "Sea": 5206,
      "colonial": 5207,
      "draught": 5208,
      "lacked": 5209,
      "1980": 5210,
      "officer": 5211,
      "Cowen": 5212,
      "Laidler": 5213,
      "broadcaster": 5214,
      "generation": 5215,
      "generated": 5216,
      "minated": 5217,
      "adapt": 5218,
      "approached": 5219,
      "approximately": 5220,
      "sixteen": 5221,
      "special": 5222,
      "atosauroids": 5223,
      "tetrapod": 5224,
      "Armament": 5225,
      "difference": 5226,
      "284": 5227,
      "falling": 5228,
      "midships": 5229,
      "middle": 5230,
      "remainder": 5231,
      "showing": 5232,
      "Shane": 5233,
      "bassist": 5234,
      "patri": 5235,
      "arrive": 5236,
      "exceeded": 5237,
      "Italy": 5238,
      "characters": 5239,
      "Again": 5240,
      "Turner": 5241,
      "Turrets": 5242,
      "blood": 5243,
      "millimetre": 5244,
      "rumours": 5245,
      "reports": 5246,
      "weakness": 5247,
      "weakening": 5248,
      "1854": 5249,
      "Israel": 5250,
      "Planet": 5251,
      "Program": 5252,
      "Product": 5253,
      "Wells": 5254,
      "borough": 5255,
      "operate": 5256,
      "operational": 5257,
      "inches": 5258,
      "superfic": 5259,
      "suggested": 5260,
      "primarily": 5261,
      "monitor": 5262,
      "Suburban": 5263,
      "nautical": 5264,
      "pursu": 5265,
      "sales": 5266,
      "salvation": 5267,
      "thirty": 5268,
      "animal": 5269,
      "records": 5270,
      "trials": 5271,
      "aboard": 5272,
      "Gidō": 5273,
      "Harbor": 5274,
      "bomber": 5275,
      "everything": 5276,
      "hands": 5277,
      "handful": 5278,
      "hardened": 5279,
      "machinery": 5280,
      "controlled": 5281,
      "providing": 5282,
      "reduce": 5283,
      "Coles": 5284,
      "Juyi": 5285,
      "Jews": 5286,
      "Poems": 5287,
      "Sheen": 5288,
      "Shellback": 5289,
      "frog": 5290,
      "shir": 5291,
      "asked": 5292,
      "issued": 5293,
      "adopt": 5294,
      "formerly": 5295,
      "getting": 5296,
      "counterattack": 5297,
      "penetration": 5298,
      "penetrated": 5299,
      "penetrations": 5300,
      "Eryopoidea": 5301,
      "Spirit": 5302,
      "dropped": 5303,
      "domin": 5304,
      "gency": 5305,
      "misses": 5306,
      "ologous": 5307,
      "belief": 5308,
      "commented": 5309,
      "medium": 5310,
      "blocking": 5311,
      "Emperor": 5312,
      "failure": 5313,
      "reasons": 5314,
      "relieved": 5315,
      "letter": 5316,
      "contributed": 5317,
      "combining": 5318,
      "plicity": 5319,
      "indicating": 5320,
      "breakthrough": 5321,
      "Clade": 5322,
      "Guard": 5323,
      "lication": 5324,
      "assaults": 5325,
      "entional": 5326,
      "embedded": 5327,
      "strategy": 5328,
      "effectively": 5329,
      "Brigadier": 5330,
      "People": 5331,
      "Similar": 5332,
      "humankind": 5333,
      "miscell": 5334,
      "massive": 5335,
      "paleontologists": 5336,
      "rhachitomes": 5337,
      "tactic": 5338,
      "conventional": 5339,
      "episodes": 5340,
      "officials": 5341,
      "Branchiosaurus": 5342,
      "Branchiosauria": 5343,
      "Football": 5344,
      "Fossils": 5345,
      "Fogelmark": 5346,
      "horrors": 5347,
      "publication": 5348,
      "responded": 5349,
      "capturing": 5350,
      "translation": 5351,
      "translations": 5352,
      "attempting": 5353,
      "effects": 5354,
      "circum": 5355,
      "circular": 5356,
      "Burton": 5357,
      "Dendrerpetontidae": 5358,
      "eccles": 5359,
      "homeless": 5360,
      "palaeontologist": 5361,
      "predators": 5362,
      "title": 5363,
      "incendiary": 5364,
      "refers": 5365,
      "refused": 5366,
      "projectile": 5367,
      "temperatures": 5368,
      "boiler": 5369,
      "flooded": 5370,
      "Leonard": 5371,
      "propeller": 5372,
      "propellant": 5373,
      "Huásc": 5374,
      "Neuse": 5375,
      "Sergeant": 5376,
      "Singapore": 5377,
      "figure": 5378,
      "jaws": 5379,
      "rupted": 5380,
      "repeatedly": 5381,
      "recently": 5382,
      "stuck": 5383,
      "omeres": 5384,
      "traditionally": 5385,
      "competition": 5386,
      "1153": 5387,
      "analysis": 5388,
      "phylogeny": 5389,
      "collapse": 5390,
      "catapult": 5391,
      "Blank": 5392,
      "Blue": 5393,
      "Bayeu": 5394,
      "Chiyod": 5395,
      "Obong": 5396,
      "bias": 5397,
      "facing": 5398,
      "sometimes": 5399,
      "sinking": 5400,
      "taxon": 5401,
      "seemed": 5402,
      "impact": 5403,
      "claimed": 5404,
      "weighing": 5405,
      "examples": 5406,
      "utilizes": 5407,
      "undersides": 5408,
      "international": 5409,
      "describe": 5410,
      "description": 5411,
      "difficulty": 5412,
      "distinction": 5413,
      "distinguish": 5414,
      "touchdowns": 5415,
      "Chilean": 5416,
      "Donkey": 5417,
      "Doniel": 5418,
      "Hawkes": 5419,
      "Hawaii": 5420,
      "Kristian": 5421,
      "Kristoffer": 5422,
      "McCowen": 5423,
      "McDoniel": 5424,
      "Paul": 5425,
      "Rami": 5426,
      "Survivors": 5427,
      "Strong": 5428,
      "citrus": 5429,
      "crane": 5430,
      "gosaurus": 5431,
      "matching": 5432,
      "papal": 5433,
      "pushed": 5434,
      "swamp": 5435,
      "swimming": 5436,
      "sandstone": 5437,
      "slope": 5438,
      "wanted": 5439,
      "wife": 5440,
      "alternative": 5441,
      "level": 5442,
      "leveled": 5443,
      "championship": 5444,
      "determine": 5445,
      "determined": 5446,
      "avenues": 5447,
      "rifles": 5448,
      "Inchon": 5449,
      "Charles": 5450,
      "Archegosauroidea": 5451,
      "considerable": 5452,
      "extremely": 5453,
      "Coastal": 5454,
      "certified": 5455,
      "favourite": 5456,
      "delivered": 5457,
      "scholar": 5458,
      "reinforcements": 5459,
      "Rhytidostea": 5460,
      "Broadcast": 5461,
      "Earth": 5462,
      "Grand": 5463,
      "Henry": 5464,
      "Hartford": 5465,
      "Luoyang": 5466,
      "Notre": 5467,
      "Napolé": 5468,
      "SAB": 5469,
      "Spring": 5470,
      "boundary": 5471,
      "digital": 5472,
      "funnel": 5473,
      "fictional": 5474,
      "homologous": 5475,
      "hunter": 5476,
      "maturity": 5477,
      "muscles": 5478,
      "encies": 5479,
      "arrangement": 5480,
      "amazo": 5481,
      "impressions": 5482,
      "lifting": 5483,
      "splinter": 5484,
      "plagiosaurs": 5485,
      "opposite": 5486,
      "warnings": 5487,
      "scheme": 5488,
      "intersecting": 5489,
      "interpreted": 5490,
      "focused": 5491,
      "vibrations": 5492,
      "subjects": 5493,
      "minimal": 5494,
      "religious": 5495,
      "accomplished": 5496,
      "juvenile": 5497,
      "Australia": 5498,
      "Alexandria": 5499,
      "membranes": 5500,
      "skeletons": 5501,
      "African": 5502,
      "Caio": 5503,
      "Critics": 5504,
      "Denmark": 5505,
      "Daylight": 5506,
      "Defence": 5507,
      "Dissorophoidea": 5508,
      "Dominic": 5509,
      "History": 5510,
      "Jackson": 5511,
      "Kihang": 5512,
      "Kampon": 5513,
      "Lissamphibia": 5514,
      "Mississi": 5515,
      "Purgator": 5516,
      "Richard": 5517,
      "Southern": 5518,
      "Savan": 5519,
      "Telegraph": 5520,
      "Vickers": 5521,
      "Writing": 5522,
      "business": 5523,
      "dangerous": 5524,
      "echobee": 5525,
      "journey": 5526,
      "pounders": 5527,
      "trematosauroids": 5528,
      "treatment": 5529,
      "thunderstorms": 5530,
      "injury": 5531,
      "recurring": 5532,
      "restored": 5533,
      "debate": 5534,
      "condyles": 5535,
      "conservatives": 5536,
      "supposed": 5537,
      "attorney": 5538,
      "proceed": 5539,
      "quality": 5540,
      "fertilization": 5541,
      "evacuated": 5542,
      "computer": 5543,
      "compilation": 5544,
      "foxhole": 5545,
      "technology": 5546,
      "financial": 5547,
      "Albums": 5548,
      "inventor": 5549,
      "Dvinosauria": 5550,
      "Cochleosaur": 5551,
      "normally": 5552,
      "resulted": 5553,
      "markedly": 5554,
      "mixed": 5555,
      "philosoph": 5556,
      "parallelisms": 5557,
      "candidates": 5558,
      "pterygoid": 5559,
      "neotenic": 5560,
      "precursors": 5561,
      "principal": 5562,
      "Ayres": 5563,
      "Amazon": 5564,
      "Brutus": 5565,
      "Batrachi": 5566,
      "Budd": 5567,
      "Brachyopoidea": 5568,
      "Bashō": 5569,
      "Cloverleaf": 5570,
      "Cayuga": 5571,
      "Craig": 5572,
      "Cretaceous": 5573,
      "Ecole": 5574,
      "Fraser": 5575,
      "Friedrich": 5576,
      "Irish": 5577,
      "Jeune": 5578,
      "Kinburn": 5579,
      "Louis": 5580,
      "Matsu": 5581,
      "Martin": 5582,
      "Nedler": 5583,
      "Okeechobee": 5584,
      "Originally": 5585,
      "Priory": 5586,
      "Pearl": 5587,
      "Phonerpeton": 5588,
      "Sichuan": 5589,
      "Selected": 5590,
      "Swedish": 5591,
      "Swift": 5592,
      "Treasure": 5593,
      "Tsushima": 5594,
      "TAFB": 5595,
      "Vevo": 5596,
      "Wisconsin": 5597,
      "Zittel": 5598,
      "Zaza": 5599,
      "culminated": 5600,
      "cott": 5601,
      "dvinosaur": 5602,
      "dioxide": 5603,
      "fictive": 5604,
      "faithful": 5605,
      "girdle": 5606,
      "iastical": 5607,
      "natural": 5608,
      "nationalism": 5609,
      "narrator": 5610,
      "pouch": 5611,
      "pione": 5612,
      "pontoon": 5613,
      "solid": 5614,
      "twelve": 5615,
      "trouble": 5616,
      "vacuities": 5617,
      "infiltrating": 5618,
      "replica": 5619,
      "enlisted": 5620,
      "accompanying": 5621,
      "immense": 5622,
      "territor": 5623,
      "defeated": 5624,
      "departed": 5625,
      "dekkerin": 5626,
      "confirmed": 5627,
      "consensus": 5628,
      "Insomnia": 5629,
      "projections": 5630,
      "agglers": 5631,
      "sockets": 5632,
      "exhausted": 5633,
      "shafts": 5634,
      "airborne": 5635,
      "themselves": 5636,
      "Onondaga": 5637,
      "Arsenal": 5638,
      "forecastle": 5639,
      "Stegocephalia": 5640,
      "electronic": 5641,
      "Engaño": 5642,
      "Connecticut": 5643,
      "Anglican": 5644,
      "postcranial": 5645,
      "Laidleria": 5646,
      "miscellaneous": 5647,
      "ecclesiastical": 5648,
      "Huáscar": 5649,
      "Bayeux": 5650,
      "Chiyoda": 5651,
      "Napoléon": 5652,
      "Mississippi": 5653,
      "--": 5654,
      "04": 5655,
      "08": 5656,
      "1194": 5657,
      "219": 5658,
      "33": 5659,
      "39": 5660,
      "330": 5661,
      "41": 5662,
      "49": 5663,
      "4Y": 5664,
      "460": 5665,
      "498": 5666,
      "51": 5667,
      "52": 5668,
      "55": 5669,
      "57": 5670,
      "59": 5671,
      "5th": 5672,
      "66": 5673,
      "680": 5674,
      "660": 5675,
      "7th": 5676,
      "700": 5677,
      "720": 5678,
      "712": 5679,
      "800": 5680,
      "813": 5681,
      "93": 5682,
      "95": 5683,
      "96": 5684,
      "97": 5685,
      "970": 5686,
      "AN": 5687,
      "AR": 5688,
      "Are": 5689,
      "Ash": 5690,
      "Along": 5691,
      "Around": 5692,
      "Across": 5693,
      "BE": 5694,
      "BO": 5695,
      "Ber": 5696,
      "Bar": 5697,
      "Bal": 5698,
      "Bes": 5699,
      "Bad": 5700,
      "Bap": 5701,
      "Bel": 5702,
      "Bob": 5703,
      "Bef": 5704,
      "Bru": 5705,
      "Based": 5706,
      "Bush": 5707,
      "Bow": 5708,
      "Bulls": 5709,
      "Ced": 5710,
      "Cou": 5711,
      "Cam": 5712,
      "Cull": 5713,
      "Cred": 5714,
      "Dy": 5715,
      "Dar": 5716,
      "Dand": 5717,
      "Dis": 5718,
      "Dere": 5719,
      "Down": 5720,
      "Drum": 5721,
      "Dissorophi": 5722,
      "D4Y": 5723,
      "E4": 5724,
      "EL": 5725,
      "EV": 5726,
      "Eri": 5727,
      "E16": 5728,
      "Emp": 5729,
      "Fü": 5730,
      "Fro": 5731,
      "Fac": 5732,
      "Fil": 5733,
      "Five": 5734,
      "Ful": 5735,
      "Fact": 5736,
      "Fight": 5737,
      "Fland": 5738,
      "Flight": 5739,
      "Fiction": 5740,
      "Fix": 5741,
      "Finally": 5742,
      "Flot": 5743,
      "Gl": 5744,
      "Gal": 5745,
      "Gir": 5746,
      "Gide": 5747,
      "Gover": 5748,
      "Group": 5749,
      "Gree": 5750,
      "Gulf": 5751,
      "HO": 5752,
      "Han": 5753,
      "Hon": 5754,
      "Hor": 5755,
      "Hic": 5756,
      "Hie": 5757,
      "Harr": 5758,
      "Hamm": 5759,
      "Holly": 5760,
      "IM": 5761,
      "IS": 5762,
      "Ire": 5763,
      "Isa": 5764,
      "Iow": 5765,
      "Jas": 5766,
      "Jac": 5767,
      "Jur": 5768,
      "Jens": 5769,
      "Jail": 5770,
      "Jud": 5771,
      "Jah": 5772,
      "James": 5773,
      "JMA": 5774,
      "KT": 5775,
      "Ka": 5776,
      "Ku": 5777,
      "Kar": 5778,
      "Kal": 5779,
      "Kit": 5780,
      "Kur": 5781,
      "Kent": 5782,
      "Kong": 5783,
      "Kant": 5784,
      "Kier": 5785,
      "Ly": 5786,
      "Lat": 5787,
      "Len": 5788,
      "Lar": 5789,
      "Lof": 5790,
      "Ling": 5791,
      "Long": 5792,
      "Let": 5793,
      "Last": 5794,
      "Less": 5795,
      "Lair": 5796,
      "Lush": 5797,
      "Lago": 5798,
      "LLI": 5799,
      "Mi": 5800,
      "Ms": 5801,
      "Mal": 5802,
      "Mich": 5803,
      "Mex": 5804,
      "Mot": 5805,
      "Maw": 5806,
      "Member": 5807,
      "Max": 5808,
      "N2": 5809,
      "Nav": 5810,
      "Nich": 5811,
      "Near": 5812,
      "Nassa": 5813,
      "Nonetheless": 5814,
      "Numan": 5815,
      "ON": 5816,
      "Ol": 5817,
      "Op": 5818,
      "Otto": 5819,
      "Pu": 5820,
      "Ply": 5821,
      "Pres": 5822,
      "Pak": 5823,
      "Pau": 5824,
      "Pai": 5825,
      "Paleontologist": 5826,
      "Penn": 5827,
      "Qin": 5828,
      "Ron": 5829,
      "Rid": 5830,
      "Rain": 5831,
      "Rex": 5832,
      "Rour": 5833,
      "Rut": 5834,
      "Ramm": 5835,
      "Rachitom": 5836,
      "Raven": 5837,
      "Rhom": 5838,
      "Rising": 5839,
      "Sk": 5840,
      "Sä": 5841,
      "Sö": 5842,
      "Sir": 5843,
      "Ship": 5844,
      "Squ": 5845,
      "Sop": 5846,
      "Sound": 5847,
      "Sund": 5848,
      "Seven": 5849,
      "SMS": 5850,
      "SIT": 5851,
      "Scott": 5852,
      "T3": 5853,
      "T5": 5854,
      "T8": 5855,
      "Tu": 5856,
      "Tor": 5857,
      "Tif": 5858,
      "Tod": 5859,
      "Top": 5860,
      "Tra": 5861,
      "Tho": 5862,
      "Tok": 5863,
      "Tech": 5864,
      "UR": 5865,
      "Ur": 5866,
      "Using": 5867,
      "URE": 5868,
      "Upon": 5869,
      "VB": 5870,
      "Vol": 5871,
      "Vern": 5872,
      "Various": 5873,
      "Wu": 5874,
      "Wall": 5875,
      "Winter": 5876,
      "Waking": 5877,
      "Wales": 5878,
      "Wood": 5879,
      "Year": 5880,
      "Yok": 5881,
      "Yamas": 5882,
      "Zr": 5883,
      "Zatrach": 5884,
      "aed": 5885,
      "aum": 5886,
      "aide": 5887,
      "aight": 5888,
      "award": 5889,
      "aided": 5890,
      "afloat": 5891,
      "bly": 5892,
      "bent": 5893,
      "bop": 5894,
      "bine": 5895,
      "brit": 5896,
      "blow": 5897,
      "bang": 5898,
      "biz": 5899,
      "bank": 5900,
      "bath": 5901,
      "blast": 5902,
      "baum": 5903,
      "cin": 5904,
      "core": 5905,
      "cers": 5906,
      "cide": 5907,
      "cart": 5908,
      "cens": 5909,
      "cia": 5910,
      "cited": 5911,
      "categ": 5912,
      "cification": 5913,
      "cument": 5914,
      "campa": 5915,
      "don": 5916,
      "dim": 5917,
      "done": 5918,
      "dut": 5919,
      "dau": 5920,
      "divers": 5921,
      "diversity": 5922,
      "dressed": 5923,
      "data": 5924,
      "distr": 5925,
      "dissorophi": 5926,
      "emo": 5927,
      "els": 5928,
      "eco": 5929,
      "eating": 5930,
      "ecess": 5931,
      "fal": 5932,
      "fers": 5933,
      "fany": 5934,
      "fts": 5935,
      "fill": 5936,
      "fant": 5937,
      "fred": 5938,
      "fied": 5939,
      "foul": 5940,
      "funk": 5941,
      "flies": 5942,
      "fety": 5943,
      "fusion": 5944,
      "gar": 5945,
      "gal": 5946,
      "gro": 5947,
      "gap": 5948,
      "gate": 5949,
      "gut": 5950,
      "gian": 5951,
      "hp": 5952,
      "hu": 5953,
      "hə": 5954,
      "hing": 5955,
      "hus": 5956,
      "hans": 5957,
      "hung": 5958,
      "hPa": 5959,
      "iation": 5960,
      "ires": 5961,
      "ique": 5962,
      "ibility": 5963,
      "iomorph": 5964,
      "jun": 5965,
      "jum": 5966,
      "job": 5967,
      "kish": 5968,
      "kind": 5969,
      "kner": 5970,
      "killing": 5971,
      "kanshi": 5972,
      "lv": 5973,
      "lation": 5974,
      "lumber": 5975,
      "lakes": 5976,
      "lomorph": 5977,
      "labor": 5978,
      "mal": 5979,
      "mad": 5980,
      "mom": 5981,
      "mere": 5982,
      "mith": 5983,
      "mation": 5984,
      "mine": 5985,
      "mess": 5986,
      "mous": 5987,
      "mash": 5988,
      "munition": 5989,
      "ng": 5990,
      "nal": 5991,
      "nit": 5992,
      "nge": 5993,
      "nce": 5994,
      "net": 5995,
      "nation": 5996,
      "num": 5997,
      "nations": 5998,
      "nery": 5999,
      "nonetheless": 6000,
      "ox": 6001,
      "oy": 6002,
      "olo": 6003,
      "osu": 6004,
      "ots": 6005,
      "ohang": 6006,
      "ography": 6007,
      "osuchus": 6008,
      "ocide": 6009,
      "pum": 6010,
      "pating": 6011,
      "path": 6012,
      "ploy": 6013,
      "rat": 6014,
      "rhe": 6015,
      "rations": 6016,
      "rase": 6017,
      "race": 6018,
      "rush": 6019,
      "rivers": 6020,
      "san": 6021,
      "sav": 6022,
      "sli": 6023,
      "send": 6024,
      "sounding": 6025,
      "sborough": 6026,
      "smash": 6027,
      "tu": 6028,
      "tin": 6029,
      "tch": 6030,
      "tim": 6031,
      "tap": 6032,
      "till": 6033,
      "tend": 6034,
      "tone": 6035,
      "tary": 6036,
      "tally": 6037,
      "tating": 6038,
      "tions": 6039,
      "tub": 6040,
      "tended": 6041,
      "taking": 6042,
      "tides": 6043,
      "takes": 6044,
      "trematosaur": 6045,
      "uá": 6046,
      "ulo": 6047,
      "uper": 6048,
      "uate": 6049,
      "uted": 6050,
      "uence": 6051,
      "uchi": 6052,
      "ucius": 6053,
      "vet": 6054,
      "vol": 6055,
      "via": 6056,
      "vature": 6057,
      "vised": 6058,
      "wer": 6059,
      "wing": 6060,
      "wav": 6061,
      "worth": 6062,
      "wich": 6063,
      "warm": 6064,
      "wish": 6065,
      "want": 6066,
      "watch": 6067,
      "whist": 6068,
      "wading": 6069,
      "wider": 6070,
      "xual": 6071,
      "xhans": 6072,
      "yo": 6073,
      "yed": 6074,
      "yce": 6075,
      "za": 6076,
      "zad": 6077,
      "zong": 6078,
      "zilla": 6079,
      "zuma": 6080,
      "ào": 6081,
      "Ōyod": 6082,
      "ūgan": 6083,
      "詩聖": 6084,
      "thal": 6085,
      "thus": 6086,
      "thplace": 6087,
      "things": 6088,
      "tholog": 6089,
      "threw": 6090,
      "theory": 6091,
      "thetic": 6092,
      "ino": 6093,
      "inis": 6094,
      "inion": 6095,
      "inte": 6096,
      "inary": 6097,
      "inher": 6098,
      "independ": 6099,
      "independent": 6100,
      "infat": 6101,
      "ange": 6102,
      "ania": 6103,
      "anied": 6104,
      "ancy": 6105,
      "annect": 6106,
      "anchor": 6107,
      "antholog": 6108,
      "erc": 6109,
      "erim": 6110,
      "erbour": 6111,
      "onent": 6112,
      "onia": 6113,
      "onist": 6114,
      "editor": 6115,
      "edopoids": 6116,
      "educ": 6117,
      "rep": 6118,
      "rey": 6119,
      "reed": 6120,
      "reted": 6121,
      "restr": 6122,
      "recalled": 6123,
      "recover": 6124,
      "refin": 6125,
      "replace": 6126,
      "remov": 6127,
      "reconstruction": 6128,
      "reformed": 6129,
      "reput": 6130,
      "reets": 6131,
      "replacement": 6132,
      "reverse": 6133,
      "rebellion": 6134,
      "atl": 6135,
      "atroom": 6136,
      "orter": 6137,
      "orde": 6138,
      "orian": 6139,
      "orbiting": 6140,
      "enh": 6141,
      "eno": 6142,
      "enge": 6143,
      "enable": 6144,
      "envision": 6145,
      "enaries": 6146,
      "sts": 6147,
      "stability": 6148,
      "stances": 6149,
      "streets": 6150,
      "arp": 6151,
      "arche": 6152,
      "oft": 6153,
      "ald": 6154,
      "alone": 6155,
      "alerted": 6156,
      "anded": 6157,
      "andard": 6158,
      "esis": 6159,
      "asc": 6160,
      "ashi": 6161,
      "assist": 6162,
      "asphen": 6163,
      "told": 6164,
      "toren": 6165,
      "tosaurus": 6166,
      "towed": 6167,
      "totally": 6168,
      "isaur": 6169,
      "roth": 6170,
      "roll": 6171,
      "rostr": 6172,
      "robust": 6173,
      "rotating": 6174,
      "itability": 6175,
      "inger": 6176,
      "outed": 6177,
      "ichi": 6178,
      "icid": 6179,
      "icate": 6180,
      "icts": 6181,
      "icians": 6182,
      "iconic": 6183,
      "ioning": 6184,
      "leak": 6185,
      "lets": 6186,
      "lement": 6187,
      "leys": 6188,
      "leston": 6189,
      "hell": 6190,
      "hetes": 6191,
      "ada": 6192,
      "admir": 6193,
      "adults": 6194,
      "adorable": 6195,
      "aco": 6196,
      "aced": 6197,
      "acent": 6198,
      "accomp": 6199,
      "acef": 6200,
      "hie": 6201,
      "hiro": 6202,
      "hired": 6203,
      "iration": 6204,
      "sey": 6205,
      "sell": 6206,
      "secre": 6207,
      "seek": 6208,
      "sealing": 6209,
      "sexual": 6210,
      "illo": 6211,
      "illi": 6212,
      "entially": 6213,
      "entering": 6214,
      "ivor": 6215,
      "amids": 6216,
      "amos": 6217,
      "ambig": 6218,
      "iders": 6219,
      "idity": 6220,
      "teus": 6221,
      "teens": 6222,
      "teamm": 6223,
      "teaser": 6224,
      "omit": 6225,
      "unt": 6226,
      "united": 6227,
      "untle": 6228,
      "uncle": 6229,
      "unsuccess": 6230,
      "uncovered": 6231,
      "unarmoured": 6232,
      "unrelated": 6233,
      "undefeated": 6234,
      "beg": 6235,
      "Theobal": 6236,
      "lody": 6237,
      "loqu": 6238,
      "losing": 6239,
      "pothe": 6240,
      "pope": 6241,
      "cha": 6242,
      "chen": 6243,
      "chick": 6244,
      "chase": 6245,
      "china": 6246,
      "church": 6247,
      "chaplain": 6248,
      "imated": 6249,
      "impres": 6250,
      "imals": 6251,
      "impor": 6252,
      "impossible": 6253,
      "improved": 6254,
      "improve": 6255,
      "termin": 6256,
      "nothing": 6257,
      "ghan": 6258,
      "dee": 6259,
      "dem": 6260,
      "deter": 6261,
      "demo": 6262,
      "depos": 6263,
      "deposition": 6264,
      "depart": 6265,
      "decre": 6266,
      "deals": 6267,
      "deposed": 6268,
      "demand": 6269,
      "ception": 6270,
      "ceiling": 6271,
      "claw": 6272,
      "cture": 6273,
      "ctors": 6274,
      "ctuate": 6275,
      "aver": 6276,
      "avoid": 6277,
      "ussi": 6278,
      "usions": 6279,
      "lier": 6280,
      "liber": 6281,
      "liament": 6282,
      "lized": 6283,
      "consu": 6284,
      "conve": 6285,
      "conical": 6286,
      "conning": 6287,
      "confront": 6288,
      "concept": 6289,
      "consumed": 6290,
      "constant": 6291,
      "thatched": 6292,
      "vers": 6293,
      "versus": 6294,
      "appar": 6295,
      "tries": 6296,
      "tribut": 6297,
      "spr": 6298,
      "spital": 6299,
      "spring": 6300,
      "spawn": 6301,
      "whom": 6302,
      "suction": 6303,
      "suitable": 6304,
      "mother": 6305,
      "model": 6306,
      "atton": 6307,
      "riages": 6308,
      "rific": 6309,
      "romachi": 6310,
      "buted": 6311,
      "00s": 6312,
      "Indo": 6313,
      "Inland": 6314,
      "Independ": 6315,
      "Instead": 6316,
      "Intens": 6317,
      "ols": 6318,
      "olomeres": 6319,
      "allusions": 6320,
      "propos": 6321,
      "provide": 6322,
      "prosec": 6323,
      "proximately": 6324,
      "protag": 6325,
      "pler": 6326,
      "plain": 6327,
      "plung": 6328,
      "weather": 6329,
      "employ": 6330,
      "berg": 6331,
      "bery": 6332,
      "bergh": 6333,
      "abi": 6334,
      "abs": 6335,
      "neth": 6336,
      "neare": 6337,
      "neigh": 6338,
      "nephe": 6339,
      "perts": 6340,
      "percent": 6341,
      "perspe": 6342,
      "aint": 6343,
      "resolved": 6344,
      "resolution": 6345,
      "ateon": 6346,
      "therlands": 6347,
      "aker": 6348,
      "dynasty": 6349,
      "1919": 6350,
      "1923": 6351,
      "1931": 6352,
      "1900s": 6353,
      "ersmith": 6354,
      "acknow": 6355,
      "ulating": 6356,
      "ulkner": 6357,
      "ifies": 6358,
      "ague": 6359,
      "agencies": 6360,
      "agreed": 6361,
      "aste": 6362,
      "aster": 6363,
      "astic": 6364,
      "social": 6365,
      "oda": 6366,
      "odd": 6367,
      "oded": 6368,
      "fect": 6369,
      "fever": 6370,
      "safety": 6371,
      "quate": 6372,
      "quite": 6373,
      "quake": 6374,
      "qualities": 6375,
      "quoted": 6376,
      "1828": 6377,
      "1820s": 6378,
      "opening": 6379,
      "exter": 6380,
      "exhib": 6381,
      "excess": 6382,
      "exposed": 6383,
      "explic": 6384,
      "exclusive": 6385,
      "explained": 6386,
      "experiment": 6387,
      "exerc": 6388,
      "stration": 6389,
      "strake": 6390,
      "stragglers": 6391,
      "straight": 6392,
      "sie": 6393,
      "siah": 6394,
      "sipating": 6395,
      "routes": 6396,
      "earning": 6397,
      "raiding": 6398,
      "raiders": 6399,
      "arms": 6400,
      "derbergh": 6401,
      "veget": 6402,
      "ishments": 6403,
      "ideals": 6404,
      "gunpowder": 6405,
      "gunnery": 6406,
      "itioning": 6407,
      "ineffe": 6408,
      "ineffic": 6409,
      "posing": 6410,
      "kees": 6411,
      "lowering": 6412,
      "anti": 6413,
      "anton": 6414,
      "peare": 6415,
      "pector": 6416,
      "peacef": 6417,
      "assess": 6418,
      "trying": 6419,
      "ranged": 6420,
      "ranging": 6421,
      "hook": 6422,
      "hospital": 6423,
      "icals": 6424,
      "firm": 6425,
      "overcome": 6426,
      "utter": 6427,
      "notion": 6428,
      "notice": 6429,
      "203": 6430,
      "2011": 6431,
      "ference": 6432,
      "ferried": 6433,
      "outable": 6434,
      "Chic": 6435,
      "Chris": 6436,
      "Chuá": 6437,
      "Chūgan": 6438,
      "Cherbour": 6439,
      "Chatroom": 6440,
      "acting": 6441,
      "actable": 6442,
      "actors": 6443,
      "merge": 6444,
      "merges": 6445,
      "merged": 6446,
      "enses": 6447,
      "ensured": 6448,
      "eves": 6449,
      "evil": 6450,
      "Comment": 6451,
      "epic": 6452,
      "ometers": 6453,
      "compens": 6454,
      "inda": 6455,
      "cking": 6456,
      "phens": 6457,
      "phary": 6458,
      "phrase": 6459,
      "Hell": 6460,
      "turnt": 6461,
      "turreted": 6462,
      "steep": 6463,
      "steering": 6464,
      "wording": 6465,
      "words": 6466,
      "doz": 6467,
      "does": 6468,
      "document": 6469,
      "estates": 6470,
      "preferred": 6471,
      "formal": 6472,
      "istance": 6473,
      "istols": 6474,
      "saurid": 6475,
      "positioned": 6476,
      "usts": 6477,
      "shī": 6478,
      "shin": 6479,
      "shing": 6480,
      "shared": 6481,
      "sharp": 6482,
      "airstrike": 6483,
      "flames": 6484,
      "dug": 6485,
      "Then": 6486,
      "Thus": 6487,
      "Things": 6488,
      "firepower": 6489,
      "mechan": 6490,
      "meets": 6491,
      "melod": 6492,
      "melody": 6493,
      "wars": 6494,
      "strugg": 6495,
      "Warning": 6496,
      "blew": 6497,
      "pting": 6498,
      "schip": 6499,
      "scrap": 6500,
      "scream": 6501,
      "scope": 6502,
      "screen": 6503,
      "office": 6504,
      "offense": 6505,
      "spect": 6506,
      "speak": 6507,
      "Reich": 6508,
      "Realities": 6509,
      "Rebellion": 6510,
      "Reception": 6511,
      "obi": 6512,
      "obstructions": 6513,
      "upbeat": 6514,
      "adequate": 6515,
      "disc": 6516,
      "disk": 6517,
      "dispat": 6518,
      "disarr": 6519,
      "displayed": 6520,
      "disadvantage": 6521,
      "disabled": 6522,
      "dissipating": 6523,
      "somewhat": 6524,
      "enged": 6525,
      "engaging": 6526,
      "undi": 6527,
      "commended": 6528,
      "igns": 6529,
      "knocked": 6530,
      "lau": 6531,
      "laire": 6532,
      "izon": 6533,
      "izhou": 6534,
      "corvet": 6535,
      "interchange": 6536,
      "intersection": 6537,
      "intercourse": 6538,
      "interrupted": 6539,
      "interpterygoid": 6540,
      "1121": 6541,
      "ganteus": 6542,
      "metacent": 6543,
      "regard": 6544,
      "regions": 6545,
      "Stone": 6546,
      "Stud": 6547,
      "Standard": 6548,
      "Stanton": 6549,
      "cargo": 6550,
      "rupt": 6551,
      "rugged": 6552,
      "supplement": 6553,
      "Rose": 6554,
      "Roger": 6555,
      "burden": 6556,
      "ipate": 6557,
      "highlight": 6558,
      "containing": 6559,
      "plays": 6560,
      "player": 6561,
      "players": 6562,
      "designers": 6563,
      "designated": 6564,
      "Nakajima": 6565,
      "maintained": 6566,
      "sided": 6567,
      "tongue": 6568,
      "classic": 6569,
      "amphibamid": 6570,
      "amphibamids": 6571,
      "manually": 6572,
      "retreat": 6573,
      "retiring": 6574,
      "cycle": 6575,
      "foot": 6576,
      "1940": 6577,
      "1941": 6578,
      "1945": 6579,
      "parity": 6580,
      "parasphen": 6581,
      "riverboats": 6582,
      "HitFix": 6583,
      "tender": 6584,
      "tensile": 6585,
      "downstream": 6586,
      "logical": 6587,
      "mmaker": 6588,
      "backed": 6589,
      "backbone": 6590,
      "brings": 6591,
      "brilli": 6592,
      "shel": 6593,
      "shear": 6594,
      "understand": 6595,
      "undergoing": 6596,
      "Newman": 6597,
      "Newport": 6598,
      "Steam": 6599,
      "Steel": 6600,
      "Stephens": 6601,
      "stars": 6602,
      "starboard": 6603,
      "applying": 6604,
      "westward": 6605,
      "Rifenberg": 6606,
      "osaurus": 6607,
      "ictions": 6608,
      "seconds": 6609,
      "surpr": 6610,
      "surround": 6611,
      "loader": 6612,
      "nearby": 6613,
      "251": 6614,
      "arches": 6615,
      "Hobe": 6616,
      "ailments": 6617,
      "mond": 6618,
      "viet": 6619,
      "eryopoids": 6620,
      "eryopids": 6621,
      "energet": 6622,
      "headed": 6623,
      "producing": 6624,
      "producers": 6625,
      "1877": 6626,
      "1879": 6627,
      "election": 6628,
      "stripped": 6629,
      "chigut": 6630,
      "crossings": 6631,
      "guide": 6632,
      "guarded": 6633,
      "shooting": 6634,
      "reader": 6635,
      "closer": 6636,
      "whereas": 6637,
      "signment": 6638,
      "decades": 6639,
      "considering": 6640,
      "translate": 6641,
      "transmit": 6642,
      "battlefleet": 6643,
      "develops": 6644,
      "continually": 6645,
      "continuously": 6646,
      "102": 6647,
      "105": 6648,
      "cann": 6649,
      "canal": 6650,
      "sylv": 6651,
      "visions": 6652,
      "writer": 6653,
      "require": 6654,
      "achieved": 6655,
      "rigging": 6656,
      "expense": 6657,
      "expensive": 6658,
      "expanded": 6659,
      "129": 6660,
      "131": 6661,
      "136": 6662,
      "13th": 6663,
      "240": 6664,
      "Altogether": 6665,
      "Allied": 6666,
      "Alfred": 6667,
      "Enric": 6668,
      "simply": 6669,
      "simplicity": 6670,
      "simpler": 6671,
      "ualty": 6672,
      "remind": 6673,
      "remember": 6674,
      "reminis": 6675,
      "royal": 6676,
      "759": 6677,
      "foundations": 6678,
      "mphorian": 6679,
      "commanded": 6680,
      "commanding": 6681,
      "154": 6682,
      "Afterwards": 6683,
      "Aftermath": 6684,
      "Hillsborough": 6685,
      "hypothe": 6686,
      "portion": 6687,
      "radicals": 6688,
      "tracked": 6689,
      "destroyer": 6690,
      "Conference": 6691,
      "Ford": 6692,
      "Formation": 6693,
      "gauntle": 6694,
      "ighter": 6695,
      "charter": 6696,
      "1865": 6697,
      "1869": 6698,
      "completion": 6699,
      "Carriages": 6700,
      "Mein": 6701,
      "batrachi": 6702,
      "petrol": 6703,
      "torn": 6704,
      "depth": 6705,
      "depicts": 6706,
      "submarine": 6707,
      "suborders": 6708,
      "1880": 6709,
      "1881": 6710,
      "1884": 6711,
      "Temnospondyl": 6712,
      "breast": 6713,
      "breach": 6714,
      "brevi": 6715,
      "county": 6716,
      "morpho": 6717,
      "tinged": 6718,
      "tomatic": 6719,
      "performs": 6720,
      "Antill": 6721,
      "Animals": 6722,
      "Deed": 6723,
      "Development": 6724,
      "Joint": 6725,
      "Josie": 6726,
      "histories": 6727,
      "historians": 6728,
      "decks": 6729,
      "books": 6730,
      "floor": 6731,
      "limit": 6732,
      "settle": 6733,
      "setting": 6734,
      "strongly": 6735,
      "regiments": 6736,
      "periods": 6737,
      "describes": 6738,
      "AAA": 6739,
      "clearly": 6740,
      "clearing": 6741,
      "uba": 6742,
      "extent": 6743,
      "extended": 6744,
      "successor": 6745,
      "406": 6746,
      "Where": 6747,
      "curvature": 6748,
      "distri": 6749,
      "invulner": 6750,
      "involving": 6751,
      "styles": 6752,
      "stylist": 6753,
      "stylized": 6754,
      "plane": 6755,
      "planning": 6756,
      "shellfire": 6757,
      "appears": 6758,
      "colate": 6759,
      "drawn": 6760,
      "drafted": 6761,
      "fitting": 6762,
      "xta": 6763,
      "1981": 6764,
      "1984": 6765,
      "officially": 6766,
      "strengthen": 6767,
      "strengthened": 6768,
      "genera": 6769,
      "generators": 6770,
      "thicker": 6771,
      "approxim": 6772,
      "appropri": 6773,
      "specific": 6774,
      "majority": 6775,
      "literal": 6776,
      "Ironsides": 6777,
      "grounds": 6778,
      "sensu": 6779,
      "peaking": 6780,
      "participate": 6781,
      "differed": 6782,
      "influences": 6783,
      "381": 6784,
      "cases": 6785,
      "falls": 6786,
      "remains": 6787,
      "student": 6788,
      "1997": 6789,
      "1998": 6790,
      "1999": 6791,
      "servant": 6792,
      "communion": 6793,
      "showed": 6794,
      "Franken": 6795,
      "Russo": 6796,
      "Shū": 6797,
      "Should": 6798,
      "Shann": 6799,
      "Shakes": 6800,
      "Shào": 6801,
      "bases": 6802,
      "talking": 6803,
      "returning": 6804,
      "arriving": 6805,
      "arrival": 6806,
      "exception": 6807,
      "Italia": 6808,
      "Agency": 6809,
      "PEN": 6810,
      "Turkish": 6811,
      "blown": 6812,
      "rows": 6813,
      "1934": 6814,
      "1853": 6815,
      "1855": 6816,
      "1857": 6817,
      "sizes": 6818,
      "Confucius": 6819,
      "Johnny": 6820,
      "strengths": 6821,
      "Proven": 6822,
      "Propulsion": 6823,
      "Weather": 6824,
      "superfamily": 6825,
      "superstructures": 6826,
      "survivor": 6827,
      "27th": 6828,
      "Firm": 6829,
      "Lepospondy": 6830,
      "Typhoon": 6831,
      "frag": 6832,
      "lasted": 6833,
      "purposes": 6834,
      "purpose": 6835,
      "recorded": 6836,
      "reserves": 6837,
      "meantime": 6838,
      "characterized": 6839,
      "299": 6840,
      "Beaut": 6841,
      "Bills": 6842,
      "Harry": 6843,
      "Towards": 6844,
      "cheek": 6845,
      "hardcore": 6846,
      "slower": 6847,
      "slowing": 6848,
      "visited": 6849,
      "visual": 6850,
      "ashore": 6851,
      "sections": 6852,
      "reducing": 6853,
      "Fletch": 6854,
      "Poet": 6855,
      "Point": 6856,
      "marking": 6857,
      "shield": 6858,
      "issues": 6859,
      "itarist": 6860,
      "connect": 6861,
      "connections": 6862,
      "counteroffensive": 6863,
      "Eryopidae": 6864,
      "Herons": 6865,
      "Schwart": 6866,
      "cutive": 6867,
      "drop": 6868,
      "dominated": 6869,
      "filmmaker": 6870,
      "genocide": 6871,
      "missed": 6872,
      "missing": 6873,
      "owed": 6874,
      "owatt": 6875,
      "soldier": 6876,
      "heavier": 6877,
      "believing": 6878,
      "believes": 6879,
      "establishment": 6880,
      "crews": 6881,
      "patrols": 6882,
      "805": 6883,
      "Benge": 6884,
      "Benasser": 6885,
      "crop": 6886,
      "layers": 6887,
      "lengthened": 6888,
      "fortified": 6889,
      "combination": 6890,
      "1842": 6891,
      "indicate": 6892,
      "indicated": 6893,
      "preparations": 6894,
      "coasts": 6895,
      "engineers": 6896,
      "productions": 6897,
      "prevented": 6898,
      "preventing": 6899,
      "Labyrinthodonti": 6900,
      "Blackburn": 6901,
      "Central": 6902,
      "Guitarist": 6903,
      "dawn": 6904,
      "daily": 6905,
      "drummer": 6906,
      "factory": 6907,
      "friends": 6908,
      "license": 6909,
      "youngest": 6910,
      "initi": 6911,
      "assault": 6912,
      "towards": 6913,
      "isoning": 6914,
      "sportscaster": 6915,
      "embolomeres": 6916,
      "strategies": 6917,
      "battalions": 6918,
      "Body": 6919,
      "Book": 6920,
      "Palest": 6921,
      "Similarly": 6922,
      "famine": 6923,
      "famous": 6924,
      "masses": 6925,
      "narrow": 6926,
      "smoke": 6927,
      "schools": 6928,
      "tips": 6929,
      "uchus": 6930,
      "value": 6931,
      "reviews": 6932,
      "reviewer": 6933,
      "roofing": 6934,
      "rocks": 6935,
      "rocket": 6936,
      "labyrinthodont": 6937,
      "greatly": 6938,
      "flexibility": 6939,
      "collective": 6940,
      "Stereospondylomorph": 6941,
      "Brown": 6942,
      "Branchiosauridae": 6943,
      "growing": 6944,
      "horse": 6945,
      "horizon": 6946,
      "prompting": 6947,
      "response": 6948,
      "responsible": 6949,
      "representing": 6950,
      "representative": 6951,
      "organized": 6952,
      "organization": 6953,
      "sequences": 6954,
      "sequently": 6955,
      "consistently": 6956,
      "abandon": 6957,
      "costs": 6958,
      "captive": 6959,
      "translating": 6960,
      "translators": 6961,
      "finalist": 6962,
      "communicated": 6963,
      "courtship": 6964,
      "762": 6965,
      "766": 6966,
      "Alec": 6967,
      "Burn": 6968,
      "IND": 6969,
      "INTEN": 6970,
      "Team": 6971,
      "Trophy": 6972,
      "Trematosaurs": 6973,
      "Trematosaurus": 6974,
      "blages": 6975,
      "civilians": 6976,
      "favor": 6977,
      "frequent": 6978,
      "freshwater": 6979,
      "glas": 6980,
      "lissamphibian": 6981,
      "predomin": 6982,
      "predecess": 6983,
      "session": 6984,
      "acute": 6985,
      "separated": 6986,
      "severely": 6987,
      "location": 6988,
      "losses": 6989,
      "population": 6990,
      "withdrawal": 6991,
      "withdrawing": 6992,
      "projects": 6993,
      "projecting": 6994,
      "objectively": 6995,
      "flooding": 6996,
      "bombing": 6997,
      "equipment": 6998,
      "Accordingly": 6999,
      "materials": 7000,
      "35th": 7001,
      "Amsel": 7002,
      "Hugh": 7003,
      "Neo": 7004,
      "Netherlands": 7005,
      "Private": 7006,
      "Prussi": 7007,
      "Service": 7008,
      "coldness": 7009,
      "figures": 7010,
      "figured": 7011,
      "risk": 7012,
      "sched": 7013,
      "suscept": 7014,
      "wheel": 7015,
      "wheels": 7016,
      "reinforced": 7017,
      "repelled": 7018,
      "secular": 7019,
      "select": 7020,
      "selection": 7021,
      "cleric": 7022,
      "clergy": 7023,
      "confluence": 7024,
      "personalities": 7025,
      "1905": 7026,
      "1907": 7027,
      "1977": 7028,
      "1970s": 7029,
      "competing": 7030,
      "preserve": 7031,
      "1154": 7032,
      "1158": 7033,
      "highways": 7034,
      "maintains": 7035,
      "maintaining": 7036,
      "eyesight": 7037,
      "morality": 7038,
      "Likewise": 7039,
      "characteristic": 7040,
      "George": 7041,
      "collapsed": 7042,
      "collapsible": 7043,
      "tympani": 7044,
      "Bahama": 7045,
      "Chizad": 7046,
      "Explaining": 7047,
      "Gansu": 7048,
      "Koolas": 7049,
      "Symphorian": 7050,
      "biplanes": 7051,
      "faces": 7052,
      "faster": 7053,
      "juxta": 7054,
      "kilowatt": 7055,
      "priest": 7056,
      "prized": 7057,
      "pieces": 7058,
      "revised": 7059,
      "respects": 7060,
      "rooms": 7061,
      "seemingly": 7062,
      "claims": 7063,
      "programs": 7064,
      "programming": 7065,
      "platforms": 7066,
      "exists": 7067,
      "existing": 7068,
      "existence": 7069,
      "anticipated": 7070,
      "utilize": 7071,
      "induced": 7072,
      "inducted": 7073,
      "industry": 7074,
      "metoposaurs": 7075,
      "discuss": 7076,
      "discussion": 7077,
      "discusses": 7078,
      "internal": 7079,
      "carrying": 7080,
      "Rosenbaum": 7081,
      "Associated": 7082,
      "extensively": 7083,
      "affection": 7084,
      "installations": 7085,
      "announced": 7086,
      "Edopoids": 7087,
      "Meteorology": 7088,
      "Andrew": 7089,
      "Dickstein": 7090,
      "Messiah": 7091,
      "Ramtoren": 7092,
      "Salv": 7093,
      "Surfer": 7094,
      "TELLI": 7095,
      "biggest": 7096,
      "citadel": 7097,
      "driving": 7098,
      "fifth": 7099,
      "fifty": 7100,
      "fifteen": 7101,
      "governor": 7102,
      "happened": 7103,
      "paper": 7104,
      "slopes": 7105,
      "wanna": 7106,
      "stresses": 7107,
      "alternatives": 7108,
      "learn": 7109,
      "accused": 7110,
      "accident": 7111,
      "confusion": 7112,
      "conclude": 7113,
      "concludes": 7114,
      "concentrate": 7115,
      "rifice": 7116,
      "rifling": 7117,
      "emergency": 7118,
      "ifying": 7119,
      "Charleston": 7120,
      "Christian": 7121,
      "evolutionary": 7122,
      "elsewhere": 7123,
      "fluctuate": 7124,
      "capitosaurs": 7125,
      "Archegosaurus": 7126,
      "defenders": 7127,
      "relationships": 7128,
      "consideration": 7129,
      "calcified": 7130,
      "brothers": 7131,
      "conversions": 7132,
      "Mercenaries": 7133,
      "scholars": 7134,
      "Amphibia": 7135,
      "Egyptians": 7136,
      "emphasis": 7137,
      "emphasized": 7138,
      "About": 7139,
      "Abaco": 7140,
      "Broadside": 7141,
      "Caldwell": 7142,
      "Calcification": 7143,
      "Doctors": 7144,
      "Elvis": 7145,
      "Elbridge": 7146,
      "Earlier": 7147,
      "Gregzilla": 7148,
      "Northern": 7149,
      "Napoleon": 7150,
      "Robinson": 7151,
      "Robbery": 7152,
      "SATELLI": 7153,
      "Soviet": 7154,
      "Sino": 7155,
      "Sinop": 7156,
      "bounds": 7157,
      "easy": 7158,
      "easily": 7159,
      "giant": 7160,
      "giganteus": 7161,
      "hunters": 7162,
      "snapped": 7163,
      "spool": 7164,
      "waited": 7165,
      "waiting": 7166,
      "reality": 7167,
      "renewed": 7168,
      "renewal": 7169,
      "resemble": 7170,
      "encia": 7171,
      "tower": 7172,
      "amazing": 7173,
      "belonging": 7174,
      "consciousness": 7175,
      "traveling": 7176,
      "splash": 7177,
      "compelled": 7178,
      "compelling": 7179,
      "plagiosaurid": 7180,
      "perfect": 7181,
      "perfected": 7182,
      "strictly": 7183,
      "boxes": 7184,
      "keeping": 7185,
      "schemes": 7186,
      "Recently": 7187,
      "intersected": 7188,
      "bridges": 7189,
      "vibration": 7190,
      "Metoposauroidea": 7191,
      "Cowper": 7192,
      "Cowley": 7193,
      "Embolerim": 7194,
      "contrasts": 7195,
      "squadron": 7196,
      "accomplishments": 7197,
      "juveniles": 7198,
      "kilograms": 7199,
      "Australian": 7200,
      "Alexander": 7201,
      "Oceanography": 7202,
      "membrane": 7203,
      "skeleton": 7204,
      "aggressively": 7205,
      "Approximately": 7206,
      "Apateon": 7207,
      "Borough": 7208,
      "Doug": 7209,
      "Douglas": 7210,
      "Faber": 7211,
      "Faulkner": 7212,
      "Kyo": 7213,
      "Kenneth": 7214,
      "Morris": 7215,
      "Milton": 7216,
      "Milner": 7217,
      "Philip": 7218,
      "RIAA": 7219,
      "Satō": 7220,
      "Suborder": 7221,
      "Vaught": 7222,
      "Vaughan": 7223,
      "WIVB": 7224,
      "Yankees": 7225,
      "culture": 7226,
      "elder": 7227,
      "fatal": 7228,
      "finger": 7229,
      "farms": 7230,
      "frustrated": 7231,
      "hoped": 7232,
      "judge": 7233,
      "tusks": 7234,
      "tension": 7235,
      "ventral": 7236,
      "atropical": 7237,
      "arrested": 7238,
      "assembled": 7239,
      "assemblages": 7240,
      "accuracy": 7241,
      "accuser": 7242,
      "accusations": 7243,
      "unsuited": 7244,
      "lodge": 7245,
      "loyalty": 7246,
      "chorus": 7247,
      "challenge": 7248,
      "delayed": 7249,
      "delaying": 7250,
      "detailed": 7251,
      "clashes": 7252,
      "truck": 7253,
      "transports": 7254,
      "models": 7255,
      "promotion": 7256,
      "negative": 7257,
      "extratropical": 7258,
      "possibility": 7259,
      "possibly": 7260,
      "notches": 7261,
      "compartment": 7262,
      "compartments": 7263,
      "compassion": 7264,
      "physician": 7265,
      "flourish": 7266,
      "flourished": 7267,
      "typically": 7268,
      "scored": 7269,
      "scoring": 7270,
      "observe": 7271,
      "dispens": 7272,
      "metamorphosis": 7273,
      "profession": 7274,
      "manufacture": 7275,
      "children": 7276,
      "remarkably": 7277,
      "Additional": 7278,
      "Additionally": 7279,
      "subsequent": 7280,
      "subsequently": 7281,
      "extinct": 7282,
      "extinction": 7283,
      "occasional": 7284,
      "masterpiece": 7285,
      "excellent": 7286,
      "excellence": 7287,
      "Plagiosuchus": 7288,
      "vocalist": 7289,
      "analyzed": 7290,
      "convinced": 7291,
      "convincing": 7292,
      "accommodations": 7293,
      "bombarding": 7294,
      "bombardment": 7295,
      "difficulties": 7296,
      "paintings": 7297,
      "Amphibamus": 7298,
      "Amphibamidae": 7299,
      "incorporated": 7300,
      "incorporates": 7301,
      "Pentecostal": 7302,
      "benefit": 7303,
      "benefactor": 7304,
      "murdering": 7305,
      "hydraulic": 7306,
      "hydraulically": 7307,
      "Baby": 7308,
      "Batrachosaurus": 7309,
      "Cycl": 7310,
      "Casualty": 7311,
      "Crown": 7312,
      "Callao": 7313,
      "Chocolate": 7314,
      "Dutch": 7315,
      "Forecast": 7316,
      "Furthermore": 7317,
      "Hunting": 7318,
      "Muromachi": 7319,
      "Medal": 7320,
      "Menier": 7321,
      "Madison": 7322,
      "MacArthur": 7323,
      "Mainstream": 7324,
      "Mountain": 7325,
      "Miller": 7326,
      "Melinda": 7327,
      "Nigerpeton": 7328,
      "Phytosaurus": 7329,
      "Redoutable": 7330,
      "Review": 7331,
      "Sabbath": 7332,
      "Selby": 7333,
      "Sclerocephal": 7334,
      "Teddy": 7335,
      "UTC": 7336,
      "Works": 7337,
      "Zhen": 7338,
      "birthplace": 7339,
      "branchiosaurs": 7340,
      "craze": 7341,
      "credited": 7342,
      "canceled": 7343,
      "catching": 7344,
      "domestic": 7345,
      "diverted": 7346,
      "eighteen": 7347,
      "hrer": 7348,
      "harbor": 7349,
      "holis": 7350,
      "multiple": 7351,
      "ninth": 7352,
      "pilots": 7353,
      "pagoda": 7354,
      "pictures": 7355,
      "rhyme": 7356,
      "sacrifice": 7357,
      "sortied": 7358,
      "switch": 7359,
      "taught": 7360,
      "ville": 7361,
      "varying": 7362,
      "wrecked": 7363,
      "inspired": 7364,
      "incible": 7365,
      "inhabited": 7366,
      "rectly": 7367,
      "retractable": 7368,
      "reporting": 7369,
      "repairs": 7370,
      "atisfactory": 7371,
      "escorted": 7372,
      "outrun": 7373,
      "ambition": 7374,
      "amount": 7375,
      "beyond": 7376,
      "potential": 7377,
      "impedance": 7378,
      "novella": 7379,
      "demonstrated": 7380,
      "climbed": 7381,
      "conducted": 7382,
      "appointment": 7383,
      "summaris": 7384,
      "suddenly": 7385,
      "comedic": 7386,
      "Influence": 7387,
      "progressed": 7388,
      "prototype": 7389,
      "feeling": 7390,
      "expected": 7391,
      "earthquake": 7392,
      "evaluation": 7393,
      "comparison": 7394,
      "compromises": 7395,
      "airdrops": 7396,
      "flawed": 7397,
      "Throughout": 7398,
      "registered": 7399,
      "prisoner": 7400,
      "contains": 7401,
      "parietal": 7402,
      "synony": 7403,
      "achievement": 7404,
      "simultaneously": 7405,
      "vertebral": 7406,
      "Whitehead": 7407,
      "telephone": 7408,
      "superficially": 7409,
      "pursued": 7410,
      "bombers": 7411,
      "shirt": 7412,
      "dominant": 7413,
      "Guardian": 7414,
      "circumstances": 7415,
      "Blankenship": 7416,
      "Broadcasters": 7417,
      "amazoo": 7418,
      "splinters": 7419,
      "Purgatorio": 7420,
      "Cochleosauridae": 7421,
      "philosophical": 7422,
      "Batrachia": 7423,
      "Buddhist": 7424,
      "Matsuo": 7425,
      "Swiftsure": 7426,
      "dvinosaurs": 7427,
      "pioneered": 7428,
      "territories": 7429,
      "dekkerinidae": 7430,
      "Asher": 7431,
      "Baphetes": 7432,
      "Belgian": 7433,
      "Before": 7434,
      "Cedar": 7435,
      "Cullum": 7436,
      "Credits": 7437,
      "Dynasty": 7438,
      "Dandolo": 7439,
      "Derek": 7440,
      "Dissorophidae": 7441,
      "Erie": 7442,
      "Empire": 7443,
      "Führer": 7444,
      "Fulham": 7445,
      "Factory": 7446,
      "Fighting": 7447,
      "Flanders": 7448,
      "Flotilla": 7449,
      "Girl": 7450,
      "Gideon": 7451,
      "Greek": 7452,
      "Honor": 7453,
      "Hickey": 7454,
      "Hiei": 7455,
      "Harrison": 7456,
      "Hammersmith": 7457,
      "Hollywood": 7458,
      "Ireland": 7459,
      "Isaac": 7460,
      "Iowa": 7461,
      "Jason": 7462,
      "Jacobi": 7463,
      "Jurassic": 7464,
      "Jenson": 7465,
      "Jailhouse": 7466,
      "Judge": 7467,
      "Jahred": 7468,
      "Kaiser": 7469,
      "Kuizhou": 7470,
      "Kalamazoo": 7471,
      "Kita": 7472,
      "Kurt": 7473,
      "Kantō": 7474,
      "Kieron": 7475,
      "Lydekkerinidae": 7476,
      "Latin": 7477,
      "Loftus": 7478,
      "Lingga": 7479,
      "Lesser": 7480,
      "Laird": 7481,
      "Lushan": 7482,
      "Lagoon": 7483,
      "Miami": 7484,
      "Motor": 7485,
      "Mawk": 7486,
      "Members": 7487,
      "Nicholas": 7488,
      "Nassau": 7489,
      "Numancia": 7490,
      "Olly": 7491,
      "Plymouth": 7492,
      "Presley": 7493,
      "Paulo": 7494,
      "Paixhans": 7495,
      "Pennsylv": 7496,
      "Qinzhou": 7497,
      "Ridley": 7498,
      "Rainer": 7499,
      "Rexroth": 7500,
      "Rourke": 7501,
      "Ruta": 7502,
      "Rammstein": 7503,
      "Rachitomi": 7504,
      "Ravenhill": 7505,
      "Rhombop": 7506,
      "Säve": 7507,
      "Söderbergh": 7508,
      "Ships": 7509,
      "Sophie": 7510,
      "Sunday": 7511,
      "SITY": 7512,
      "Tiffany": 7513,
      "Today": 7514,
      "Trauma": 7515,
      "Those": 7516,
      "Urabi": 7517,
      "Vernon": 7518,
      "Wallonia": 7519,
      "Yokosu": 7520,
      "Yamashiro": 7521,
      "brittle": 7522,
      "bizarre": 7523,
      "cartil": 7524,
      "census": 7525,
      "categor": 7526,
      "campaigns": 7527,
      "dimin": 7528,
      "distraction": 7529,
      "dissorophids": 7530,
      "ecosystems": 7531,
      "fouling": 7532,
      "həd": 7533,
      "husband": 7534,
      "junction": 7535,
      "madness": 7536,
      "munitions": 7537,
      "nitro": 7538,
      "ngeal": 7539,
      "numerous": 7540,
      "rhetor": 7541,
      "timing": 7542,
      "tubes": 7543,
      "uchidae": 7544,
      "Ōyodo": 7545,
      "independently": 7546,
      "infatuation": 7547,
      "annectens": 7548,
      "anthologies": 7549,
      "education": 7550,
      "restricted": 7551,
      "removal": 7552,
      "reputation": 7553,
      "ordeal": 7554,
      "envisioned": 7555,
      "archegosaur": 7556,
      "rostrine": 7557,
      "icidal": 7558,
      "leaks": 7559,
      "admiration": 7560,
      "accompanied": 7561,
      "secretary": 7562,
      "ambigu": 7563,
      "unsuccessfully": 7564,
      "Theobald": 7565,
      "chicken": 7566,
      "imported": 7567,
      "claws": 7568,
      "consuming": 7569,
      "apparatus": 7570,
      "tributaries": 7571,
      "spawned": 7572,
      "Indochina": 7573,
      "Independencia": 7574,
      "Intensity": 7575,
      "prosecution": 7576,
      "protagonist": 7577,
      "plunging": 7578,
      "nearest": 7579,
      "nephew": 7580,
      "perspective": 7581,
      "acknowled": 7582,
      "exhibited": 7583,
      "excessive": 7584,
      "explicit": 7585,
      "exclusively": 7586,
      "experimented": 7587,
      "vegetation": 7588,
      "ineffective": 7589,
      "pectoral": 7590,
      "peaceful": 7591,
      "hooks": 7592,
      "Chuán": 7593,
      "Cherbourg": 7594,
      "pharyngeal": 7595,
      "melodic": 7596,
      "struggled": 7597,
      "scrapped": 7598,
      "disarray": 7599,
      "metacentric": 7600,
      "parasphenoid": 7601,
      "energetic": 7602,
      "chigutisaur": 7603,
      "Enrico": 7604,
      "reminiscent": 7605,
      "Antilles": 7606,
      "invulnerable": 7607,
      "stylistic": 7608,
      "Frankenstein": 7609,
      "Shannon": 7610,
      "Shakespeare": 7611,
      "Lepospondyli": 7612,
      "Fletcher": 7613,
      "Schwartz": 7614,
      "Benasseraf": 7615,
      "Stereospondylomorpha": 7616,
      "INTENSITY": 7617,
      "predominant": 7618,
      "Prussian": 7619,
      "susceptible": 7620,
      "Koolasuchus": 7621,
      "Ramtorenschip": 7622,
      "SATELLITE": 7623,
      "Embolerimi": 7624,
      "Pennsylvania": 7625,
      "Rhombopholis": 7626,
      "Yokosuka": 7627,
      "06": 7628,
      "050": 7629,
      "0500": 7630,
      "0300": 7631,
      "060": 7632,
      "1M": 7633,
      "1Y": 7634,
      "118": 7635,
      "1180": 7636,
      "2d": 7637,
      "2it": 7638,
      "211": 7639,
      "21st": 7640,
      "210": 7641,
      "213": 7642,
      "216": 7643,
      "275": 7644,
      "228": 7645,
      "229": 7646,
      "320": 7647,
      "30s": 7648,
      "311": 7649,
      "325": 7650,
      "3000": 7651,
      "340": 7652,
      "350": 7653,
      "321": 7654,
      "360": 7655,
      "411": 7656,
      "413": 7657,
      "429": 7658,
      "465": 7659,
      "4Music": 7660,
      "53": 7661,
      "56": 7662,
      "530": 7663,
      "540": 7664,
      "550": 7665,
      "580": 7666,
      "563": 7667,
      "61": 7668,
      "6R": 7669,
      "625": 7670,
      "610": 7671,
      "675": 7672,
      "640": 7673,
      "650": 7674,
      "681": 7675,
      "71": 7676,
      "74": 7677,
      "775": 7678,
      "740": 7679,
      "737": 7680,
      "765": 7681,
      "745": 7682,
      "735": 7683,
      "746": 7684,
      "744": 7685,
      "730s": 7686,
      "83": 7687,
      "85": 7688,
      "88": 7689,
      "89": 7690,
      "82nd": 7691,
      "870": 7692,
      "848": 7693,
      "8N2": 7694,
      "82d": 7695,
      "91": 7696,
      "92": 7697,
      "99": 7698,
      "9Z": 7699,
      "90s": 7700,
      "930": 7701,
      "910": 7702,
      "975": 7703,
      "945": 7704,
      "948": 7705,
      "978": 7706,
      "AC": 7707,
      "AG": 7708,
      "AK": 7709,
      "AL": 7710,
      "AP": 7711,
      "AT": 7712,
      "Ah": 7713,
      "Av": 7714,
      "Ath": 7715,
      "Ate": 7716,
      "Asi": 7717,
      "Asc": 7718,
      "Adam": 7719,
      "Achi": 7720,
      "Aff": 7721,
      "ATV": 7722,
      "ARI": 7723,
      "ABO": 7724,
      "Azuma": 7725,
      "Aichi": 7726,
      "BR": 7727,
      "Bé": 7728,
      "Bon": 7729,
      "Bre": 7730,
      "Band": 7731,
      "Bing": 7732,
      "Bou": 7733,
      "Bun": 7734,
      "Bet": 7735,
      "Ball": 7736,
      "Bard": 7737,
      "Bear": 7738,
      "Bra": 7739,
      "Bart": 7740,
      "Bass": 7741,
      "Bial": 7742,
      "Best": 7743,
      "Bure": 7744,
      "Bist": 7745,
      "Batter": 7746,
      "Bie": 7747,
      "B000": 7748,
      "Beast": 7749,
      "Bau": 7750,
      "Bub": 7751,
      "Bei": 7752,
      "Bunk": 7753,
      "Barr": 7754,
      "Breech": 7755,
      "Bony": 7756,
      "Bishop": 7757,
      "Badly": 7758,
      "Baid": 7759,
      "Bius": 7760,
      "Bolt": 7761,
      "BAR": 7762,
      "Bange": 7763,
      "CZ": 7764,
      "Cz": 7765,
      "Cá": 7766,
      "Cle": 7767,
      "Che": 7768,
      "Cad": 7769,
      "Cli": 7770,
      "Cong": 7771,
      "Cem": 7772,
      "Chad": 7773,
      "Care": 7774,
      "Cast": 7775,
      "Cop": 7776,
      "Cist": 7777,
      "Cler": 7778,
      "Cons": 7779,
      "Caval": 7780,
      "Cross": 7781,
      "Cry": 7782,
      "Case": 7783,
      "Cai": 7784,
      "Chel": 7785,
      "Catch": 7786,
      "CMA": 7787,
      "Cert": 7788,
      "CAM": 7789,
      "Claire": 7790,
      "Cuba": 7791,
      "DT": 7792,
      "DV": 7793,
      "Di": 7794,
      "Dé": 7795,
      "Der": 7796,
      "Das": 7797,
      "Dav": 7798,
      "Dol": 7799,
      "Dif": 7800,
      "Dra": 7801,
      "Del": 7802,
      "Dance": 7803,
      "Dig": 7804,
      "Dio": 7805,
      "Dry": 7806,
      "Drin": 7807,
      "Dost": 7808,
      "DEV": 7809,
      "DIS": 7810,
      "Dexter": 7811,
      "DCZ": 7812,
      "ED": 7813,
      "EM": 7814,
      "ER": 7815,
      "Et": 7816,
      "Eu": 7817,
      "Eag": 7818,
      "Edu": 7819,
      "Every": 7820,
      "Espec": 7821,
      "EAS": 7822,
      "E1Y": 7823,
      "E8N2": 7824,
      "EBR": 7825,
      "F3": 7826,
      "FI": 7827,
      "FM": 7828,
      "FO": 7829,
      "FP": 7830,
      "Fin": 7831,
      "Fed": 7832,
      "Fit": 7833,
      "Fay": 7834,
      "Farm": 7835,
      "Fire": 7836,
      "Few": 7837,
      "Fang": 7838,
      "Fron": 7839,
      "Fail": 7840,
      "Funk": 7841,
      "Friend": 7842,
      "Fresh": 7843,
      "Flip": 7844,
      "Finger": 7845,
      "FAC": 7846,
      "GE": 7847,
      "GN": 7848,
      "Gh": 7849,
      "Gé": 7850,
      "Gō": 7851,
      "Gor": 7852,
      "Gen": 7853,
      "Gar": 7854,
      "Gis": 7855,
      "Gil": 7856,
      "Gong": 7857,
      "Gain": 7858,
      "Gard": 7859,
      "Game": 7860,
      "Gome": 7861,
      "Gary": 7862,
      "Giles": 7863,
      "Gold": 7864,
      "Gale": 7865,
      "Gah": 7866,
      "Grum": 7867,
      "Grow": 7868,
      "Gene": 7869,
      "Gond": 7870,
      "Green": 7871,
      "Garden": 7872,
      "HC": 7873,
      "Hō": 7874,
      "Hal": 7875,
      "Hand": 7876,
      "Had": 7877,
      "Ham": 7878,
      "Hom": 7879,
      "Here": 7880,
      "Hong": 7881,
      "Hak": 7882,
      "Hard": 7883,
      "Hear": 7884,
      "Hut": 7885,
      "Hug": 7886,
      "Hyong": 7887,
      "Hendr": 7888,
      "Hundred": 7889,
      "HAS": 7890,
      "Hands": 7891,
      "Hulls": 7892,
      "Hashi": 7893,
      "HIND": 7894,
      "H9Z": 7895,
      "HEM": 7896,
      "IV": 7897,
      "Id": 7898,
      "Ich": 7899,
      "Iber": 7900,
      "Iris": 7901,
      "IMA": 7902,
      "IAL": 7903,
      "IFP": 7904,
      "IGN": 7905,
      "JR": 7906,
      "Jr": 7907,
      "Jon": 7908,
      "Jis": 7909,
      "Jim": 7910,
      "Jere": 7911,
      "Jill": 7912,
      "Jut": 7913,
      "Jie": 7914,
      "Jiang": 7915,
      "KE": 7916,
      "Kō": 7917,
      "Kan": 7918,
      "Kor": 7919,
      "Kid": 7920,
      "Kom": 7921,
      "Kok": 7922,
      "Kaw": 7923,
      "Kry": 7924,
      "Know": 7925,
      "Kaf": 7926,
      "Kinst": 7927,
      "Killing": 7928,
      "LL": 7929,
      "LO": 7930,
      "LY": 7931,
      "Led": 7932,
      "Lom": 7933,
      "Llo": 7934,
      "Lap": 7935,
      "Lif": 7936,
      "Lans": 7937,
      "Lave": 7938,
      "Light": 7939,
      "Lev": 7940,
      "Lia": 7941,
      "Lew": 7942,
      "List": 7943,
      "Ley": 7944,
      "Lost": 7945,
      "Low": 7946,
      "Luc": 7947,
      "Lacy": 7948,
      "Language": 7949,
      "Los": 7950,
      "Luther": 7951,
      "Lǜshi": 7952,
      "LAR": 7953,
      "Lamos": 7954,
      "LAG": 7955,
      "M1": 7956,
      "MC": 7957,
      "MI": 7958,
      "Min": 7959,
      "Mit": 7960,
      "Ming": 7961,
      "Mun": 7962,
      "Matt": 7963,
      "Met": 7964,
      "Mach": 7965,
      "Mut": 7966,
      "Mines": 7967,
      "Mang": 7968,
      "Mob": 7969,
      "Miles": 7970,
      "Mail": 7971,
      "Mau": 7972,
      "M26": 7973,
      "Much": 7974,
      "Makes": 7975,
      "Muan": 7976,
      "Morgan": 7977,
      "Mos": 7978,
      "Mika": 7979,
      "Molly": 7980,
      "NO": 7981,
      "NT": 7982,
      "Ni": 7983,
      "Nat": 7984,
      "Nun": 7985,
      "Net": 7986,
      "Nem": 7987,
      "Nine": 7988,
      "Ness": 7989,
      "None": 7990,
      "Nort": 7991,
      "Night": 7992,
      "NES": 7993,
      "Nij": 7994,
      "Nails": 7995,
      "Nancy": 7996,
      "NHC": 7997,
      "OP": 7998,
      "OR": 7999,
      "Ou": 8000,
      "Ov": 8001,
      "Oro": 8002,
      "Over": 8003,
      "Oul": 8004,
      "Occ": 8005,
      "Orange": 8006,
      "Ozz": 8007,
      "Oku": 8008,
      "Osage": 8009,
      "ODT": 8010,
      "Pan": 8011,
      "Pet": 8012,
      "Phip": 8013,
      "Pers": 8014,
      "Pare": 8015,
      "Prou": 8016,
      "Pass": 8017,
      "Pret": 8018,
      "Pattern": 8019,
      "Prem": 8020,
      "Post": 8021,
      "Pub": 8022,
      "Prote": 8023,
      "Pei": 8024,
      "Pale": 8025,
      "Popo": 8026,
      "Presu": 8027,
      "Ports": 8028,
      "Prev": 8029,
      "Partic": 8030,
      "PRE": 8031,
      "Plot": 8032,
      "Public": 8033,
      "Patro": 8034,
      "Pinion": 8035,
      "Pistols": 8036,
      "Que": 8037,
      "Qaed": 8038,
      "Rh": 8039,
      "Rin": 8040,
      "Ran": 8041,
      "Ral": 8042,
      "Res": 8043,
      "Rad": 8044,
      "Ret": 8045,
      "Ray": 8046,
      "Rem": 8047,
      "Rear": 8048,
      "Rage": 8049,
      "Right": 8050,
      "Rel": 8051,
      "Rot": 8052,
      "Rivers": 8053,
      "Rural": 8054,
      "Raid": 8055,
      "Rico": 8056,
      "SY": 8057,
      "Sa": 8058,
      "Si": 8059,
      "Sã": 8060,
      "Son": 8061,
      "Sil": 8062,
      "Sno": 8063,
      "Smo": 8064,
      "Sem": 8065,
      "Sul": 8066,
      "Sans": 8067,
      "Sex": 8068,
      "Sear": 8069,
      "Sach": 8070,
      "Spe": 8071,
      "Sho": 8072,
      "Sage": 8073,
      "Sime": 8074,
      "Sty": 8075,
      "Sup": 8076,
      "Sig": 8077,
      "Sase": 8078,
      "Sail": 8079,
      "Sai": 8080,
      "Sah": 8081,
      "Saf": 8082,
      "Susan": 8083,
      "Solution": 8084,
      "Slay": 8085,
      "Swit": 8086,
      "SCR": 8087,
      "Somer": 8088,
      "Solf": 8089,
      "STE": 8090,
      "Scr": 8091,
      "Six": 8092,
      "Saur": 8093,
      "Shot": 8094,
      "Sanshi": 8095,
      "Sports": 8096,
      "Sails": 8097,
      "SUR": 8098,
      "Soft": 8099,
      "Saint": 8100,
      "SIGN": 8101,
      "TO": 8102,
      "Ti": 8103,
      "Tin": 8104,
      "Tan": 8105,
      "Ter": 8106,
      "Ton": 8107,
      "Tal": 8108,
      "Tit": 8109,
      "Til": 8110,
      "Tom": 8111,
      "Tsu": 8112,
      "Tong": 8113,
      "Tet": 8114,
      "Tay": 8115,
      "Tak": 8116,
      "Tany": 8117,
      "Tend": 8118,
      "Tel": 8119,
      "Tians": 8120,
      "Tug": 8121,
      "Trem": 8122,
      "Trad": 8123,
      "Tai": 8124,
      "Tamm": 8125,
      "Town": 8126,
      "Talk": 8127,
      "Twit": 8128,
      "Trev": 8129,
      "TIM": 8130,
      "TIMA": 8131,
      "TNT": 8132,
      "Use": 8133,
      "Usage": 8134,
      "VI": 8135,
      "Van": 8136,
      "Ver": 8137,
      "Ves": 8138,
      "Vis": 8139,
      "Vict": 8140,
      "Very": 8141,
      "Viet": 8142,
      "Viel": 8143,
      "Vik": 8144,
      "View": 8145,
      "Vena": 8146,
      "Wen": 8147,
      "Wal": 8148,
      "Whe": 8149,
      "Wag": 8150,
      "Wies": 8151,
      "Water": 8152,
      "Wound": 8153,
      "Wang": 8154,
      "Wade": 8155,
      "Waged": 8156,
      "WEV": 8157,
      "WIND": 8158,
      "WDCZ": 8159,
      "WEBR": 8160,
      "WJR": 8161,
      "XX": 8162,
      "Xuan": 8163,
      "Yo": 8164,
      "Yu": 8165,
      "Yal": 8166,
      "Yes": 8167,
      "Yas": 8168,
      "Yam": 8169,
      "Yet": 8170,
      "Yay": 8171,
      "Yang": 8172,
      "Yao": 8173,
      "Zy": 8174,
      "Zǐ": 8175,
      "Zion": 8176,
      "Zhe": 8177,
      "Zap": 8178,
      "Zong": 8179,
      "Zay": 8180,
      "Zum": 8181,
      "Zep": 8182,
      "Zech": 8183,
      "Zhang": 8184,
      "aes": 8185,
      "aby": 8186,
      "abu": 8187,
      "ares": 8188,
      "aits": 8189,
      "ause": 8190,
      "ael": 8191,
      "aids": 8192,
      "athed": 8193,
      "athetic": 8194,
      "aunt": 8195,
      "bt": 8196,
      "bes": 8197,
      "bing": 8198,
      "bic": 8199,
      "bber": 8200,
      "bres": 8201,
      "bag": 8202,
      "bill": 8203,
      "bles": 8204,
      "bates": 8205,
      "bade": 8206,
      "bler": 8207,
      "bors": 8208,
      "bless": 8209,
      "bread": 8210,
      "bined": 8211,
      "bunk": 8212,
      "bought": 8213,
      "bbed": 8214,
      "branchial": 8215,
      "cu": 8216,
      "cou": 8217,
      "cil": 8218,
      "cere": 8219,
      "cce": 8220,
      "cav": 8221,
      "cation": 8222,
      "cend": 8223,
      "cke": 8224,
      "cated": 8225,
      "cort": 8226,
      "cage": 8227,
      "camp": 8228,
      "cca": 8229,
      "cence": 8230,
      "cese": 8231,
      "cry": 8232,
      "crow": 8233,
      "cities": 8234,
      "cular": 8235,
      "ckey": 8236,
      "cris": 8237,
      "category": 8238,
      "di": 8239,
      "dà": 8240,
      "din": 8241,
      "dit": 8242,
      "dly": 8243,
      "dur": 8244,
      "dent": 8245,
      "dain": 8246,
      "dod": 8247,
      "dder": 8248,
      "dies": 8249,
      "dated": 8250,
      "dens": 8251,
      "dia": 8252,
      "diss": 8253,
      "dates": 8254,
      "diz": 8255,
      "dons": 8256,
      "dip": 8257,
      "dors": 8258,
      "dry": 8259,
      "die": 8260,
      "dating": 8261,
      "dared": 8262,
      "daring": 8263,
      "diet": 8264,
      "drought": 8265,
      "diction": 8266,
      "dream": 8267,
      "dendrerpeton": 8268,
      "dwind": 8269,
      "dwarf": 8270,
      "dicate": 8271,
      "eur": 8272,
      "econ": 8273,
      "eup": 8274,
      "ease": 8275,
      "eternal": 8276,
      "eaters": 8277,
      "euskeli": 8278,
      "etery": 8279,
      "eemed": 8280,
      "ella": 8281,
      "eloqu": 8282,
      "ecutive": 8283,
      "fu": 8284,
      "fur": 8285,
      "fere": 8286,
      "fet": 8287,
      "fol": 8288,
      "fem": 8289,
      "fate": 8290,
      "foun": 8291,
      "fra": 8292,
      "fine": 8293,
      "fame": 8294,
      "fuse": 8295,
      "flar": 8296,
      "fren": 8297,
      "fair": 8298,
      "fused": 8299,
      "fram": 8300,
      "finds": 8301,
      "fath": 8302,
      "fash": 8303,
      "fix": 8304,
      "ffel": 8305,
      "franch": 8306,
      "flying": 8307,
      "filling": 8308,
      "founding": 8309,
      "finely": 8310,
      "fires": 8311,
      "frey": 8312,
      "fasc": 8313,
      "flowering": 8314,
      "fighter": 8315,
      "gor": 8316,
      "gly": 8317,
      "gil": 8318,
      "gri": 8319,
      "gers": 8320,
      "gess": 8321,
      "gment": 8322,
      "gone": 8323,
      "gated": 8324,
      "gran": 8325,
      "gang": 8326,
      "greg": 8327,
      "gae": 8328,
      "gio": 8329,
      "gments": 8330,
      "gery": 8331,
      "gapo": 8332,
      "gale": 8333,
      "gament": 8334,
      "grate": 8335,
      "gives": 8336,
      "glands": 8337,
      "gaining": 8338,
      "gacy": 8339,
      "gument": 8340,
      "golf": 8341,
      "gazi": 8342,
      "gata": 8343,
      "gression": 8344,
      "garden": 8345,
      "gamos": 8346,
      "gusts": 8347,
      "hes": 8348,
      "hur": 8349,
      "hav": 8350,
      "hap": 8351,
      "hate": 8352,
      "hast": 8353,
      "harm": 8354,
      "hone": 8355,
      "hut": 8356,
      "hollow": 8357,
      "haz": 8358,
      "hensive": 8359,
      "huan": 8360,
      "hope": 8361,
      "ii": 8362,
      "ithe": 8363,
      "iar": 8364,
      "ias": 8365,
      "iac": 8366,
      "ifor": 8367,
      "ipo": 8368,
      "ium": 8369,
      "iform": 8370,
      "ipt": 8371,
      "ience": 8372,
      "iors": 8373,
      "iforms": 8374,
      "iantly": 8375,
      "iplicity": 8376,
      "irostrine": 8377,
      "ji": 8378,
      "jí": 8379,
      "jin": 8380,
      "jur": 8381,
      "jam": 8382,
      "jans": 8383,
      "jut": 8384,
      "jok": 8385,
      "jail": 8386,
      "jaz": 8387,
      "jub": 8388,
      "jiang": 8389,
      "ky": 8390,
      "kin": 8391,
      "kan": 8392,
      "ker": 8393,
      "ked": 8394,
      "kas": 8395,
      "kid": 8396,
      "kne": 8397,
      "kiss": 8398,
      "knew": 8399,
      "kush": 8400,
      "kden": 8401,
      "kPa": 8402,
      "kaga": 8403,
      "kinson": 8404,
      "kuba": 8405,
      "lu": 8406,
      "lin": 8407,
      "lat": 8408,
      "lst": 8409,
      "lou": 8410,
      "lad": 8411,
      "lac": 8412,
      "lav": 8413,
      "lus": 8414,
      "lap": 8415,
      "lab": 8416,
      "lag": 8417,
      "lure": 8418,
      "lten": 8419,
      "liner": 8420,
      "lined": 8421,
      "lato": 8422,
      "lament": 8423,
      "lung": 8424,
      "luc": 8425,
      "linson": 8426,
      "ladel": 8427,
      "lends": 8428,
      "lleys": 8429,
      "lusts": 8430,
      "mě": 8431,
      "mas": 8432,
      "mic": 8433,
      "mam": 8434,
      "mun": 8435,
      "mem": 8436,
      "mate": 8437,
      "mak": 8438,
      "mour": 8439,
      "mish": 8440,
      "mend": 8441,
      "mone": 8442,
      "mated": 8443,
      "mort": 8444,
      "mel": 8445,
      "mia": 8446,
      "mist": 8447,
      "mund": 8448,
      "mating": 8449,
      "miner": 8450,
      "mably": 8451,
      "mbar": 8452,
      "mically": 8453,
      "males": 8454,
      "madly": 8455,
      "mbol": 8456,
      "mapped": 8457,
      "né": 8458,
      "nas": 8459,
      "nic": 8460,
      "nish": 8461,
      "nical": 8462,
      "nian": 8463,
      "nang": 8464,
      "nance": 8465,
      "nick": 8466,
      "nered": 8467,
      "nante": 8468,
      "nistic": 8469,
      "oi": 8470,
      "oes": 8471,
      "oing": 8472,
      "ote": 8473,
      "owe": 8474,
      "ores": 8475,
      "oak": 8476,
      "ody": 8477,
      "oist": 8478,
      "oss": 8479,
      "oves": 8480,
      "oidea": 8481,
      "ogy": 8482,
      "ocr": 8483,
      "olot": 8484,
      "pæ": 8485,
      "pan": 8486,
      "pen": 8487,
      "pid": 8488,
      "plo": 8489,
      "pli": 8490,
      "pne": 8491,
      "pper": 8492,
      "pack": 8493,
      "pard": 8494,
      "psi": 8495,
      "pater": 8496,
      "pure": 8497,
      "pian": 8498,
      "pup": 8499,
      "pio": 8500,
      "psid": 8501,
      "pick": 8502,
      "pson": 8503,
      "pace": 8504,
      "punch": 8505,
      "pidae": 8506,
      "pile": 8507,
      "pending": 8508,
      "paid": 8509,
      "pdr": 8510,
      "ppled": 8511,
      "paed": 8512,
      "pistols": 8513,
      "pathetic": 8514,
      "qing": 8515,
      "rō": 8516,
      "ror": 8517,
      "rac": 8518,
      "rim": 8519,
      "ratt": 8520,
      "rant": 8521,
      "rines": 8522,
      "rice": 8523,
      "rapp": 8524,
      "rating": 8525,
      "rages": 8526,
      "rational": 8527,
      "rash": 8528,
      "rise": 8529,
      "rival": 8530,
      "rural": 8531,
      "rima": 8532,
      "sam": 8533,
      "sation": 8534,
      "shis": 8535,
      "sso": 8536,
      "sity": 8537,
      "sical": 8538,
      "sick": 8539,
      "sake": 8540,
      "sway": 8541,
      "sburg": 8542,
      "snow": 8543,
      "scho": 8544,
      "sorop": 8545,
      "sounded": 8546,
      "soles": 8547,
      "soft": 8548,
      "sitioning": 8549,
      "satisfactory": 8550,
      "tas": 8551,
      "tsu": 8552,
      "tation": 8553,
      "tres": 8554,
      "tted": 8555,
      "tack": 8556,
      "tide": 8557,
      "tical": 8558,
      "tort": 8559,
      "tbatt": 8560,
      "table": 8561,
      "tree": 8562,
      "tiles": 8563,
      "tations": 8564,
      "tman": 8565,
      "tids": 8566,
      "tures": 8567,
      "ttle": 8568,
      "tached": 8569,
      "tile": 8570,
      "tillery": 8571,
      "task": 8572,
      "tremat": 8573,
      "tze": 8574,
      "tinely": 8575,
      "taste": 8576,
      "tighter": 8577,
      "tabu": 8578,
      "uk": 8579,
      "uo": 8580,
      "ued": 8581,
      "uit": 8582,
      "ule": 8583,
      "uiv": 8584,
      "ute": 8585,
      "uge": 8586,
      "uct": 8587,
      "utr": 8588,
      "upro": 8589,
      "ustr": 8590,
      "upe": 8591,
      "uang": 8592,
      "uctive": 8593,
      "utop": 8594,
      "uito": 8595,
      "uinely": 8596,
      "vê": 8597,
      "vin": 8598,
      "vit": 8599,
      "vate": 8600,
      "vast": 8601,
      "vard": 8602,
      "vex": 8603,
      "vant": 8604,
      "vian": 8605,
      "vite": 8606,
      "vig": 8607,
      "vement": 8608,
      "vaged": 8609,
      "vention": 8610,
      "vastation": 8611,
      "vincible": 8612,
      "vkas": 8613,
      "wu": 8614,
      "wal": 8615,
      "wis": 8616,
      "whi": 8617,
      "wil": 8618,
      "ware": 8619,
      "wick": 8620,
      "wled": 8621,
      "wired": 8622,
      "wished": 8623,
      "wants": 8624,
      "wield": 8625,
      "wling": 8626,
      "xx": 8627,
      "xil": 8628,
      "xts": 8629,
      "yan": 8630,
      "yon": 8631,
      "ying": 8632,
      "yle": 8633,
      "yard": 8634,
      "your": 8635,
      "yler": 8636,
      "yidae": 8637,
      "youth": 8638,
      "ygen": 8639,
      "yoste": 8640,
      "yzed": 8641,
      "yours": 8642,
      "ytrain": 8643,
      "ygapo": 8644,
      "zer": 8645,
      "zil": 8646,
      "zard": 8647,
      "zher": 8648,
      "zai": 8649,
      "zatrach": 8650,
      "zinger": 8651,
      "zuo": 8652,
      "zygapo": 8653,
      "Évê": 8654,
      "ère": 8655,
      "èng": 8656,
      "ée": 8657,
      "éan": 8658,
      "érin": 8659,
      "éng": 8660,
      "óbal": 8661,
      "Ōshi": 8662,
      "ōnin": 8663,
      "έμ": 8664,
      "δυ": 8665,
      "ει": 8666,
      "λο": 8667,
      "νδυ": 8668,
      "νει": 8669,
      "πό": 8670,
      "σπό": 8671,
      "τέμ": 8672,
      "伊勢": 8673,
      "八處": 8674,
      "型戦": 8675,
      "大成": 8676,
      "律集": 8677,
      "春望": 8678,
      "杜甫": 8679,
      "杜律集": 8680,
      "甲鉄": 8681,
      "衛八處": 8682,
      "詩史": 8683,
      "贈衛八處": 8684,
      "邵傳": 8685,
      "集大成": 8686,
      "thm": 8687,
      "thly": 8688,
      "thol": 8689,
      "thum": 8690,
      "thous": 8691,
      "thma": 8692,
      "thors": 8693,
      "thcoming": 8694,
      "thrash": 8695,
      "thyoste": 8696,
      "thening": 8697,
      "inh": 8698,
      "incon": 8699,
      "insu": 8700,
      "inate": 8701,
      "iners": 8702,
      "inum": 8703,
      "inder": 8704,
      "inity": 8705,
      "infer": 8706,
      "infan": 8707,
      "insc": 8708,
      "inco": 8709,
      "inence": 8710,
      "iniz": 8711,
      "inians": 8712,
      "incar": 8713,
      "inations": 8714,
      "inite": 8715,
      "inces": 8716,
      "inodon": 8717,
      "inforce": 8718,
      "inability": 8719,
      "insides": 8720,
      "informed": 8721,
      "inars": 8722,
      "inferred": 8723,
      "inexperienced": 8724,
      "insisted": 8725,
      "instructions": 8726,
      "infect": 8727,
      "infamous": 8728,
      "inmate": 8729,
      "anto": 8730,
      "anem": 8731,
      "annot": 8732,
      "anthem": 8733,
      "anco": 8734,
      "anae": 8735,
      "anni": 8736,
      "anerpeton": 8737,
      "analo": 8738,
      "aniel": 8739,
      "erm": 8740,
      "erto": 8741,
      "erun": 8742,
      "erno": 8743,
      "ership": 8744,
      "erop": 8745,
      "erary": 8746,
      "erates": 8747,
      "erlead": 8748,
      "erti": 8749,
      "eroded": 8750,
      "oner": 8751,
      "onni": 8752,
      "onational": 8753,
      "eds": 8754,
      "eding": 8755,
      "rely": 8756,
      "rebe": 8757,
      "recon": 8758,
      "rever": 8759,
      "resp": 8760,
      "reet": 8761,
      "reish": 8762,
      "rection": 8763,
      "react": 8764,
      "reel": 8765,
      "rend": 8766,
      "really": 8767,
      "reign": 8768,
      "rected": 8769,
      "recre": 8770,
      "recall": 8771,
      "refle": 8772,
      "reprodu": 8773,
      "repet": 8774,
      "recru": 8775,
      "recess": 8776,
      "reaction": 8777,
      "recording": 8778,
      "restarted": 8779,
      "research": 8780,
      "reinst": 8781,
      "reject": 8782,
      "reestablish": 8783,
      "refitted": 8784,
      "reloaded": 8785,
      "removing": 8786,
      "reworked": 8787,
      "reborn": 8788,
      "restrict": 8789,
      "reply": 8790,
      "reconstructed": 8791,
      "recapture": 8792,
      "reclusive": 8793,
      "reassess": 8794,
      "revisions": 8795,
      "reappointment": 8796,
      "rehensive": 8797,
      "atly": 8798,
      "atore": 8799,
      "atory": 8800,
      "atantly": 8801,
      "attested": 8802,
      "atements": 8803,
      "ora": 8804,
      "oris": 8805,
      "orous": 8806,
      "orho": 8807,
      "oria": 8808,
      "orious": 8809,
      "orms": 8810,
      "ornam": 8811,
      "orax": 8812,
      "orption": 8813,
      "ormous": 8814,
      "orpio": 8815,
      "oruit": 8816,
      "ensu": 8817,
      "enab": 8818,
      "enum": 8819,
      "ender": 8820,
      "ename": 8821,
      "enious": 8822,
      "encoun": 8823,
      "encing": 8824,
      "enjo": 8825,
      "encour": 8826,
      "encer": 8827,
      "enrolled": 8828,
      "enabled": 8829,
      "envelopment": 8830,
      "enthal": 8831,
      "enjam": 8832,
      "enyan": 8833,
      "enormous": 8834,
      "sta": 8835,
      "stin": 8836,
      "stro": 8837,
      "sting": 8838,
      "stom": 8839,
      "stay": 8840,
      "stall": 8841,
      "stab": 8842,
      "sters": 8843,
      "stical": 8844,
      "stable": 8845,
      "stance": 8846,
      "stup": 8847,
      "stret": 8848,
      "static": 8849,
      "stops": 8850,
      "stically": 8851,
      "stakes": 8852,
      "staff": 8853,
      "stitu": 8854,
      "stimated": 8855,
      "stores": 8856,
      "statements": 8857,
      "arer": 8858,
      "aria": 8859,
      "arist": 8860,
      "arians": 8861,
      "arves": 8862,
      "arsen": 8863,
      "arose": 8864,
      "arrow": 8865,
      "arise": 8866,
      "arino": 8867,
      "aridity": 8868,
      "araste": 8869,
      "argument": 8870,
      "ofession": 8871,
      "alin": 8872,
      "alian": 8873,
      "alice": 8874,
      "alley": 8875,
      "alize": 8876,
      "alloy": 8877,
      "altogether": 8878,
      "alert": 8879,
      "aliation": 8880,
      "alcanal": 8881,
      "algor": 8882,
      "andong": 8883,
      "andibu": 8884,
      "esy": 8885,
      "esign": 8886,
      "esche": 8887,
      "escort": 8888,
      "asu": 8889,
      "asy": 8890,
      "aspe": 8891,
      "asals": 8892,
      "asions": 8893,
      "asible": 8894,
      "asured": 8895,
      "assignment": 8896,
      "asthma": 8897,
      "tore": 8898,
      "toes": 8899,
      "toch": 8900,
      "tool": 8901,
      "toler": 8902,
      "tosauridae": 8903,
      "isz": 8904,
      "ishi": 8905,
      "isil": 8906,
      "isable": 8907,
      "ischi": 8908,
      "isitor": 8909,
      "iscop": 8910,
      "isbury": 8911,
      "iscated": 8912,
      "isdiction": 8913,
      "rod": 8914,
      "rop": 8915,
      "rous": 8916,
      "roides": 8917,
      "rosaurs": 8918,
      "itan": 8919,
      "ites": 8920,
      "itsu": 8921,
      "itall": 8922,
      "itation": 8923,
      "itment": 8924,
      "itated": 8925,
      "itical": 8926,
      "itage": 8927,
      "itime": 8928,
      "itally": 8929,
      "itank": 8930,
      "ittle": 8931,
      "itiner": 8932,
      "itially": 8933,
      "itats": 8934,
      "itism": 8935,
      "items": 8936,
      "ingent": 8937,
      "ington": 8938,
      "ingenious": 8939,
      "ouri": 8940,
      "icy": 8941,
      "ices": 8942,
      "icto": 8943,
      "icol": 8944,
      "ication": 8945,
      "icop": 8946,
      "icism": 8947,
      "icos": 8948,
      "icata": 8949,
      "ionosuchus": 8950,
      "lem": 8951,
      "lely": 8952,
      "leans": 8953,
      "leave": 8954,
      "lease": 8955,
      "leaped": 8956,
      "legate": 8957,
      "lethal": 8958,
      "lecture": 8959,
      "lecular": 8960,
      "levard": 8961,
      "hear": 8962,
      "hemis": 8963,
      "hears": 8964,
      "heik": 8965,
      "ado": 8966,
      "ador": 8967,
      "adian": 8968,
      "adron": 8969,
      "adrate": 8970,
      "ademy": 8971,
      "adise": 8972,
      "admiral": 8973,
      "admit": 8974,
      "adverse": 8975,
      "advers": 8976,
      "adjut": 8977,
      "adalcanal": 8978,
      "acing": 8979,
      "acil": 8980,
      "acid": 8981,
      "acles": 8982,
      "acel": 8983,
      "accoun": 8984,
      "acular": 8985,
      "acuation": 8986,
      "accept": 8987,
      "acoid": 8988,
      "aciously": 8989,
      "accounted": 8990,
      "hid": 8991,
      "hire": 8992,
      "hide": 8993,
      "hither": 8994,
      "hians": 8995,
      "hiding": 8996,
      "hilate": 8997,
      "hikaga": 8998,
      "lyn": 8999,
      "lyric": 9000,
      "lydekkerin": 9001,
      "lysorop": 9002,
      "irhachitom": 9003,
      "irmish": 9004,
      "seer": 9005,
      "seat": 9006,
      "seld": 9007,
      "sets": 9008,
      "semer": 9009,
      "seaw": 9010,
      "secur": 9011,
      "seized": 9012,
      "seize": 9013,
      "sealed": 9014,
      "secutive": 9015,
      "segments": 9016,
      "urō": 9017,
      "urin": 9018,
      "urers": 9019,
      "urds": 9020,
      "urgy": 9021,
      "urban": 9022,
      "urrect": 9023,
      "urgency": 9024,
      "ila": 9025,
      "ilt": 9026,
      "ille": 9027,
      "ilant": 9028,
      "ilized": 9029,
      "iliomorph": 9030,
      "iliac": 9031,
      "enta": 9032,
      "ented": 9033,
      "entation": 9034,
      "entran": 9035,
      "entations": 9036,
      "entually": 9037,
      "ivial": 9038,
      "ivative": 9039,
      "ivile": 9040,
      "amed": 9041,
      "amph": 9042,
      "amni": 9043,
      "amley": 9044,
      "aminated": 9045,
      "amena": 9046,
      "ido": 9047,
      "idis": 9048,
      "iday": 9049,
      "idant": 9050,
      "idian": 9051,
      "idable": 9052,
      "iderpeton": 9053,
      "idering": 9054,
      "teat": 9055,
      "tear": 9056,
      "teak": 9057,
      "tels": 9058,
      "teach": 9059,
      "teles": 9060,
      "tebra": 9061,
      "text": 9062,
      "tefr": 9063,
      "tezuma": 9064,
      "tetsu": 9065,
      "texts": 9066,
      "omy": 9067,
      "omed": 9068,
      "omic": 9069,
      "omable": 9070,
      "omerous": 9071,
      "omandibu": 9072,
      "unes": 9073,
      "union": 9074,
      "unus": 9075,
      "unsa": 9076,
      "unlike": 9077,
      "unless": 9078,
      "unchar": 9079,
      "unclear": 9080,
      "unwit": 9081,
      "unofficial": 9082,
      "unrecogn": 9083,
      "unprotected": 9084,
      "unrest": 9085,
      "unpreced": 9086,
      "unparalle": 9087,
      "unhapp": 9088,
      "unsettled": 9089,
      "uncertain": 9090,
      "unappreciated": 9091,
      "unopened": 9092,
      "unprepared": 9093,
      "uninhab": 9094,
      "untried": 9095,
      "unfocused": 9096,
      "unaccomplished": 9097,
      "uncin": 9098,
      "unique": 9099,
      "unavoid": 9100,
      "unspeak": 9101,
      "unannounced": 9102,
      "uncalcified": 9103,
      "unconvincing": 9104,
      "unescorted": 9105,
      "unfath": 9106,
      "uniforms": 9107,
      "unmapped": 9108,
      "bei": 9109,
      "beth": 9110,
      "becom": 9111,
      "beard": 9112,
      "bement": 9113,
      "beach": 9114,
      "beats": 9115,
      "becoming": 9116,
      "beaut": 9117,
      "becomes": 9118,
      "becca": 9119,
      "behav": 9120,
      "Theak": 9121,
      "Themes": 9122,
      "washed": 9123,
      "washing": 9124,
      "los": 9125,
      "lobe": 9126,
      "locom": 9127,
      "losi": 9128,
      "loved": 9129,
      "loath": 9130,
      "loose": 9131,
      "losaurus": 9132,
      "loses": 9133,
      "locked": 9134,
      "locking": 9135,
      "foray": 9136,
      "forgive": 9137,
      "forgot": 9138,
      "forbade": 9139,
      "forgery": 9140,
      "forthcoming": 9141,
      "forerun": 9142,
      "foramena": 9143,
      "popo": 9144,
      "poll": 9145,
      "poles": 9146,
      "polar": 9147,
      "polic": 9148,
      "popes": 9149,
      "polation": 9150,
      "poisoning": 9151,
      "chain": 9152,
      "chame": 9153,
      "chance": 9154,
      "chased": 9155,
      "chkiss": 9156,
      "chéng": 9157,
      "chōnin": 9158,
      "chalice": 9159,
      "ims": 9160,
      "imbu": 9161,
      "imposed": 9162,
      "improv": 9163,
      "imple": 9164,
      "immature": 9165,
      "imperfe": 9166,
      "imposes": 9167,
      "imitation": 9168,
      "tered": 9169,
      "tering": 9170,
      "terram": 9171,
      "terdam": 9172,
      "tertain": 9173,
      "terrestri": 9174,
      "terrif": 9175,
      "terbury": 9176,
      "terflies": 9177,
      "terza": 9178,
      "terror": 9179,
      "terpolation": 9180,
      "noh": 9181,
      "nostr": 9182,
      "nosis": 9183,
      "noises": 9184,
      "notoch": 9185,
      "ghed": 9186,
      "ghters": 9187,
      "ghtest": 9188,
      "erected": 9189,
      "erestimated": 9190,
      "deco": 9191,
      "debr": 9192,
      "delight": 9193,
      "devi": 9194,
      "dega": 9195,
      "deaf": 9196,
      "devoted": 9197,
      "devil": 9198,
      "deceased": 9199,
      "devised": 9200,
      "deliber": 9201,
      "debuted": 9202,
      "delaire": 9203,
      "detached": 9204,
      "devast": 9205,
      "deeds": 9206,
      "delegate": 9207,
      "gely": 9208,
      "geles": 9209,
      "geost": 9210,
      "geared": 9211,
      "ceal": 9212,
      "ceiving": 9213,
      "cepted": 9214,
      "celyn": 9215,
      "ctified": 9216,
      "ctric": 9217,
      "ctica": 9218,
      "ctrines": 9219,
      "avis": 9220,
      "avier": 9221,
      "avings": 9222,
      "aviation": 9223,
      "usch": 9224,
      "ussing": 9225,
      "usville": 9226,
      "uspid": 9227,
      "lian": 9228,
      "lifer": 9229,
      "liable": 9230,
      "liot": 9231,
      "lipp": 9232,
      "liged": 9233,
      "lips": 9234,
      "likes": 9235,
      "ligraphy": 9236,
      "liking": 9237,
      "lifet": 9238,
      "ligament": 9239,
      "liked": 9240,
      "lizard": 9241,
      "conqu": 9242,
      "conut": 9243,
      "connot": 9244,
      "concre": 9245,
      "confin": 9246,
      "construct": 9247,
      "concer": 9248,
      "concus": 9249,
      "consent": 9250,
      "conserved": 9251,
      "consequ": 9252,
      "convey": 9253,
      "concert": 9254,
      "conduct": 9255,
      "contest": 9256,
      "condem": 9257,
      "consecutive": 9258,
      "context": 9259,
      "conceal": 9260,
      "vera": 9261,
      "vering": 9262,
      "versa": 9263,
      "verbat": 9264,
      "verbal": 9265,
      "aper": 9266,
      "aping": 9267,
      "appl": 9268,
      "apart": 9269,
      "appe": 9270,
      "aphy": 9271,
      "apomor": 9272,
      "apbox": 9273,
      "aphr": 9274,
      "apulo": 9275,
      "aptations": 9276,
      "tric": 9277,
      "trade": 9278,
      "trained": 9279,
      "trunk": 9280,
      "tribu": 9281,
      "triang": 9282,
      "traits": 9283,
      "tripo": 9284,
      "trivial": 9285,
      "tridis": 9286,
      "span": 9287,
      "sped": 9288,
      "spall": 9289,
      "spear": 9290,
      "spines": 9291,
      "spind": 9292,
      "spite": 9293,
      "spher": 9294,
      "spired": 9295,
      "spending": 9296,
      "sported": 9297,
      "spirit": 9298,
      "spaced": 9299,
      "sperm": 9300,
      "spitall": 9301,
      "spaper": 9302,
      "white": 9303,
      "wharves": 9304,
      "ithms": 9305,
      "ithrum": 9306,
      "suma": 9307,
      "suited": 9308,
      "suff": 9309,
      "sutar": 9310,
      "suading": 9311,
      "suffic": 9312,
      "sucking": 9313,
      "suicidal": 9314,
      "succe": 9315,
      "sutures": 9316,
      "ongated": 9317,
      "ongdo": 9318,
      "ongoing": 9319,
      "ongqing": 9320,
      "moth": 9321,
      "moto": 9322,
      "moil": 9323,
      "modest": 9324,
      "moves": 9325,
      "mography": 9326,
      "motto": 9327,
      "motions": 9328,
      "molten": 9329,
      "mospher": 9330,
      "withstood": 9331,
      "withdrawn": 9332,
      "llar": 9333,
      "llation": 9334,
      "lline": 9335,
      "llars": 9336,
      "llerop": 9337,
      "lliday": 9338,
      "attain": 9339,
      "attened": 9340,
      "attaining": 9341,
      "rift": 9342,
      "ript": 9343,
      "ription": 9344,
      "etus": 9345,
      "etically": 9346,
      "romp": 9347,
      "romel": 9348,
      "romantic": 9349,
      "buy": 9350,
      "buch": 9351,
      "busted": 9352,
      "buoy": 9353,
      "compos": 9354,
      "comical": 9355,
      "comings": 9356,
      "comfort": 9357,
      "combust": 9358,
      "complained": 9359,
      "combusted": 9360,
      "001": 9361,
      "Inn": 9362,
      "Inqu": 9363,
      "Inside": 9364,
      "Internal": 9365,
      "Instrument": 9366,
      "Information": 9367,
      "Intelligence": 9368,
      "Indirectly": 9369,
      "Invent": 9370,
      "Infra": 9371,
      "Intas": 9372,
      "Invincible": 9373,
      "Institu": 9374,
      "Initially": 9375,
      "Interpolation": 9376,
      "Inspired": 9377,
      "olin": 9378,
      "olis": 9379,
      "older": 9380,
      "olve": 9381,
      "olator": 9382,
[...]
